#version: 0.2
e n</w>
e r
i n
e n
t h
i e</w>
e r</w>
c h
th e</w>
a n
t i
e i
u n
e l
s t
a r
o n
o r
S ie</w>
e s</w>
a t
a l
a u
o n</w>
d er</w>
l i
e in
r e
i n</w>
d ie</w>
d en</w>
e c
o r</w>
d e
r o
d i
i l
g e
t o</w>
t e</w>
in g</w>
s i
t en</w>
m en
o l
m a
r i
l a
ti on</w>
un d</w>
e d</w>
r a
an d</w>
a s</w>
s e</w>
l en</w>
c h</w>
s ch
a n</w>
v er
ti on
b e
e x
o u</w>
s p
li c
l e</w>
t s</w>
g en</w>
w i
g e</w>
o f</w>
f ü
d o
ä h
a m
u r
au f</w>
s t</w>
s e
i t</w>
o m
t er
i s</w>
y ou</w>
n en</w>
ec t</w>
a b
z u
o p
i er
l o
b j
i e
t er</w>
äh len</w>
w en
d er
d as</w>
un g</w>
d e</w>
f or
l e
ein e</w>
a t</w>
u s
p p
o der</w>
s el
ar b
I n
t a
z u</w>
w er
st el
n e
men t</w>
ei ch
k en</w>
f il
a c
t o
T h
ö n
d es</w>
D at
o u
k ön
kön nen</w>
i m</w>
B e
e k
a s
ei n</w>
au s</w>
n i
de m</w>
c an</w>
g en
b o
m it</w>
f el
f i
fü r</w>
c on
h o
t t
u m</w>
f ol
v on</w>
O p
v e</w>
v i
wi r
at e</w>
ex t</w>
h en</w>
wer den</w>
b u
r u
au s
l y</w>
z ei
e l</w>
f or</w>
f f
wir d</w>
b en</w>
th at</w>
en t</w>
om p
V er
a l</w>
lic k</w>
la s
a pp
a d
m o
w e
S t
la y
c k
Th e</w>
m e
c u
lic ken</w>
t z
g t</w>
l t</w>
W en
t h</w>
ar e</w>
b er
A n
p or
Wen n</w>
b en
ch t</w>
c e</w>
h r
un gen</w>
f in
tion en</w>
B il
i st</w>
en t
W ählen</w>
p ro
O bj
e m</w>
o bj
w ählen</w>
ein en</w>
fel d</w>
i t
o k
S ch
e s
for ma
st e</w>
b e</w>
tion s</w>
ro m</w>
an d
c ol
fil e</w>
ier en</w>
l in
P D
c re
a k
e i</w>
ri p
T o</w>
F arb
f rom</w>
f e
Obj ek
c lick</w>
h i
i ma
u m
t ed</w>
ok u
an ge
p an
A c
p a
al o
y p
e u
D oku
s u
ä n
ra m
D i
ti er
sel ect</w>
o se</w>
w ei
i m
un g
wi th</w>
in g
Y ou</w>
on t
c rip
wen den</w>
di en
w or
t e
p o
h al
n o
g h
Dat ei</w>
ein er</w>
a h
a r</w>
p re
pan el</w>
c o
ei ten</w>
I n</w>
s en</w>
W er
ni cht</w>
g es</w>
t ext</w>
S el
D ie</w>
stel l
do cu
d s</w>
p er
k licken</w>
stel len</w>
y ou
d at
ch ten</w>
ei t
ex t
R e
S crip
h a
ch e</w>
ung s
am e</w>
al s</w>
er s</w>
a tion</w>
ch en</w>
E in
D e
l ä
E r
p ar
un k
w s</w>
sel ec
r ü
bo x</w>
ein em</w>
l u
P ro
f t</w>
ec i
th er</w>
si g
A us
m ö
E ben
an n</w>
you r</w>
n a
th o
zei gt</w>
u se</w>
Sel ect</w>
y m
S p
ab le</w>
in do
s o
ri bu
g ra
U m</w>
F or
b er</w>
men ts</w>
d u
col or</w>
r an
c omp
sch a
docu ment</w>
ier t</w>
ti m
obj ect</w>
t ing</w>
q u
z eu
no t</w>
F or</w>
F -
u r</w>
u l
ima ge</w>
I f</w>
s er
c al
k s</w>
w ing</w>
Scrip t</w>
st an
dien feld</w>
A do
h in
f er
g i
Op tion</w>
C ont
v al
ge w
v er</w>
de fin
el e
t -
fü gen</w>
w w
de t</w>
der n</w>
A l
k zeu
on e</w>
lay er</w>
k e</w>
Ac tion
m en</w>
Ado be</w>
ec ts</w>
e se</w>
v or
in t</w>
F il
in d</w>
con t
s o</w>
ch an
ch o
ti v
ch t
ange zeigt</w>
fol lo
V or
wen n</w>
L i
b y</w>
v ie
p le</w>
app e
er n</w>
l en
u e</w>
men u</w>
A u
d ra
fol gen
T ext
t y</w>
t f
al l</w>
W e
ei te</w>
ver wenden</w>
f ram
T ext</w>
se t</w>
M o
W indo
sp eci
g r
au f
w ie</w>
Dat ei
Doku ment</w>
sch en</w>
i x
f a
er e</w>
t u
an t</w>
E n
s ind</w>
c om
PD F</w>
M a
pa ge</w>
cho ose</w>
M e
follo wing</w>
an der
Action Script</w>
u tz
stell ungen</w>
K licken</w>
t or</w>
F las
st er</w>
gen scha
as s</w>
alo g
S e
yp e</w>
z eich
alo g</w>
mö chten</w>
m ar
T a
arb eiten</w>
Di alog
di alog</w>
d ass</w>
ribu te</w>
f t
er stellen</w>
tier en</w>
o l</w>
p l
w ant</w>
gew äh
selec ted</w>
ing s</w>
s ho
si ch</w>
s h
A b
Bil d
Flas h</w>
folgen den</w>
f y</w>
Windo ws</w>
We b
i z
u p</w>
p r
ru ck
ge ben</w>
m at
in forma
A r
to ol</w>
re c
w hen</w>
gh t</w>
wen d
i el
fil es</w>
i g
Objek t</w>
ur e</w>
g li
di sp
c es</w>
o ther</w>
aus gewäh
cre ate</w>
s ol
b ei
b ar</w>
e a
s ie</w>
Sch ri
E x
un ter
im por
an y</w>
or e</w>
PD F-
d ing</w>
Wer kzeu
st r
de d</w>
un ter</w>
l ei
be i</w>
ü ber</w>
E i
P o
us ing</w>
e m
bu tt
B er
ö ff
p la
ou t</w>
g u
Z eich
Bil d</w>
wen det</w>
ie hen</w>
Ei genscha
zu m</w>
ti ve</w>
r ei
fe h
e di
hr en</w>
ab en</w>
a v
Datei en</w>
d ur
Dialog feld</w>
vie w</w>
op tion</w>
in ter
and ar
or s</w>
j e
n e</w>
G e
sig n</w>
i r
ar i
w hi
al tf
M en
u p
altf lä
B en
obj ects</w>
d en
W hen</w>
me tho
au ch</w>
S ym
si te</w>
ah l</w>
k e
gra p
si on</w>
ak tiv
at ed</w>
ö ß
th is</w>
S W
al le</w>
am ple</w>
am en</w>
s s</w>
Sch altflä
informa tion</w>
l es</w>
w h
en d</w>
Cont ribute</w>
er t</w>
hin zu
n er</w>
L a
In forma
sch ie
er en</w>
on ly</w>
ne w</w>
m i
ein es</w>
bo l</w>
g ro
fer en
K omp
ü ber
op tions</w>
stel lt</w>
d ann</w>
P re
C ho
s s
L e
el le</w>
men te</w>
c ur
t ra
st en</w>
Ben utz
se tt
m ore</w>
ex por
b li
en th
on en
at z
t es</w>
ma ti
c es
at es</w>
th en</w>
V i
n um
n ame</w>
ho to
Cho ose</w>
butt on</w>
p at
a ge</w>
fin den</w>
de o</w>
appe ar
S eite</w>
f ten</w>
Informa tionen</w>
' s</w>
t ype</w>
än dern</w>
l er</w>
ei ch</w>
di ese</w>
am e
al so</w>
n ur</w>
sp eich
Z ei
A d
whi ch</w>
s sen</w>
In De
E le
con ta
c las
Th is</w>
i f</w>
w ur
se e</w>
m in
ar e
zei gen</w>
t r
k ann</w>
at or</w>
C lick</w>
c lu
Op tionen</w>
ru c
Be dienfeld</w>
in stan
ex ample</w>
P hoto
f arb
app lic
pro per
Ma c</w>
fram e</w>
d ar
D er</w>
p u
Men ü</w>
Q u
D as</w>
co m</w>
. com</w>
G ra
be s
f en</w>
O K</w>
i c
to mati
ter s</w>
O S</w>
B ei
ec tion</w>
Eben e</w>
h and
D ruck
G r
In hal
val ue</w>
F ü
li e
W ei
ne t</w>
co de</w>
st y
e h
Aus w
C o
lo c
le gen</w>
b r
Objek te</w>
w .
Me tho
m ul
ww w.
sig n
el s</w>
b t</w>
b ol
andar d
b in
an zu
si z
ro b
s am
be dienfeld</w>
t te</w>
t ran
chan ge</w>
er i
b il
p s</w>
on ver
com m
u st
un d
sho p</w>
it ma
d rü
si tion</w>
f au
a do
or d
K las
se tz
g s</w>
ein stellungen</w>
be .com</w>
Photo shop</w>
h aben</w>
Schaltflä che</w>
in clu
ado be.com</w>
Ü ber
i re
wend ung</w>
s en
t we
ne u
f e</w>
dat a</w>
g o</w>
b len
b ac
Ac rob
ar y</w>
au tomati
Be feh
wei se</w>
ak tu
p as
n ü
u st</w>
ar ac
ad d</w>
U n
b i
la y</w>
l s</w>
hal ten</w>
InDe sign</w>
g el
z w
www. adobe.com</w>
D ie
a ve</w>
fau lt</w>
ea ch</w>
ä lt</w>
h ne</w>
s ym
X M
L in
t en
ander en</w>
E di
ter e</w>
l ö
th e
te t</w>
P ix
Ge ben</w>
. 0</w>
I h
li ch</w>
dur ch</w>
av a
ver wendet</w>
sett ings</w>
o m</w>
Acrob at</w>
ge fü
pat h</w>
l l
appear s</w>
s ha
in s</w>
fe st
S o
öß e</w>
ti es</w>
s k
g er</w>
clas s</w>
e -
in to</w>
ausgewäh l
al ten</w>
me hr
di es
Werkzeu g</w>
an g
forma t</w>
for m
el len</w>
c an
Farb e</w>
na ch</w>
wi th
ein z
a p
lin e</w>
mo v
at ur
Wer t</w>
s h</w>
ha ve</w>
I hr
zw .</w>
de fault</w>
be arbeiten</w>
b zw.</w>
ff er
li st</w>
N a
siz e</w>
H T
speci fy</w>
ro w
g l
S k
B .</w>
z .</w>
ru pp
N e
pr in
ho w</w>
cont ent</w>
sp ar
si on
Eben en</w>
tion s
po int</w>
k nü
el l</w>
twe en</w>
knü p
dra g</w>
cur r
aus wählen</w>
str ator</w>
or t</w>
z iehen</w>
t or
C h
T ab
en ster</w>
a d</w>
P fa
F ire
u es</w>
mo ve</w>
lei ste</w>
O r
ima ges</w>
i ts</w>
disp lay</w>
Bei sp
t ur
for m</w>
s ch</w>
zu r</w>
metho d</w>
dien fel
For ma
ver schie
en ter</w>
s er</w>
g ram
applic ation</w>
C omp
tion al</w>
po in
M it</w>
Fire wor
' t</w>
el d</w>
ver fü
vi deo</w>
sch ni
ch arac
HT M
wor k</w>
p ix
n am
ah l
Doku men
C ol
speci fi
p unk
S ti
F L
Komp onen
op y</w>
mö gli
l ed</w>
val ues</w>
k t</w>
lie ß
s ame</w>
di ffer
a m</w>
fram es</w>
c or
w n</w>
bes tim
Ä n
I l
g er
Il lu
st er
g ab
ac e</w>
Zeich en
St andard
Benutz er</w>
U R
drü ck
Ein stellungen</w>
eit en
e v
b le</w>
lay ers</w>
col ors</w>
Metho de</w>
st a
einz el
e ff
fe st</w>
in sp
se par
in di
ec tor</w>
appe ar</w>
tier t</w>
stell ung</w>
g a
S eiten</w>
S ta
su ch</w>
op en</w>
Sym bol
F unk
Wei tere</w>
us ed</w>
il able</w>
we b
enth ält</w>
T ran
sch ri
de o
K ont
hinzu fügen</w>
L -
Ber eich</w>
ar d</w>
s ti
en -
al ly</w>
al i
are a</w>
P a
b el
con ver
In stan
we b</w>
P layer</w>
ei g
Klas se</w>
s c
er r
ei t</w>
S u
N amen</w>
0 0</w>
s cre
ces s</w>
cal ly</w>
ava ilable</w>
h ö
k ing</w>
ge drück
Li ste</w>
Ver wenden</w>
Au f
in dem</w>
Die se</w>
Ausw ahl</w>
v ari
fü hren</w>
differ ent</w>
s ing</w>
c li
at e
grap hi
U se</w>
L o
F ram
z wi
er stellt</w>
b le
d o</w>
c e
arb eit
ame ter</w>
Gra fi
ro l</w>
Co de</w>
in st
D -
Firewor ks</w>
Sp eich
t ri
instan ce</w>
Farb en</w>
i st
Illu strator</w>
Bil der</w>
Or d
y st
a tions</w>
R i
P ar
m ä
m por
gl eich
g ri
ek t</w>
der t</w>
Vi deo
D o
w a
s es</w>
hal b</w>
sha p
m ü
K om
edi t</w>
A k
zwi schen</w>
sym bol</w>
st ar
selec tion</w>
h tt
b ar
at ing</w>
an ce</w>
S eiten
speich ern</w>
re ch
mü ssen</w>
Forma t</w>
SW F</w>
Pro per
mehr ere</w>
aus zu
al e</w>
La y
pa ges</w>
b a
Sp eci
tim e</w>
men ü</w>
htt p</w>
bestim m
B lo
ti fi
ta ste</w>
lo w</w>
farb e</w>
In ter
sty le</w>
i en</w>
e t</w>
un c
to ol
h as</w>
gab e</w>
g an
ni s
En t
sch ließ
app ly</w>
D ra
v or</w>
u s</w>
ch er
K an
ier ung</w>
h men</w>
aktiv ieren</w>
B itma
num ber</w>
E in</w>
it y</w>
wei ter
ad j
Ex por
Befeh l</w>
t t</w>
in e</w>
sch ir
ne ue</w>
mul ti
f on
Edi t</w>
t able</w>
ch es</w>
U m
wer kzeu
w o</w>
si cht</w>
r e</w>
ele te</w>
Un ter
Er stellen</w>
Web site</w>
proper ty</w>
R a
ser ver</w>
l an
en den</w>
on ent</w>
en s</w>
C re
en n
c k</w>
al en</w>
- click</w>
th em</w>
scre en</w>
fol der</w>
ander e</w>
Sym bol</w>
s cal
pla ce</w>
du s</w>
ausgewähl ten</w>
at z</w>
ar t
verfü g
m an
k eine</w>
d re
ausgewäh lt</w>
us er</w>
Fil ter</w>
C om
B u
3 D</w>
zeich en</w>
li chen</w>
SW F-
w il
re su
pu t</w>
o ver
ma ke</w>
in n
m ust</w>
il fe</w>
be tween</w>
disp lay
d ge</w>
Eigenscha ften</w>
ma s
h e</w>
Z iehen</w>
ou t
ol l
ie l</w>
ent sp
ier te</w>
ig n
curr ent</w>
bei m</w>
P r
wil l</w>
i l</w>
dat ei</w>
ke y
si ble</w>
mä ß
zu fügen</w>
fi r
spar en
p rü
s ec
i ck
for mat
di rec
bli o
vi g
Schri ft
th ese</w>
mäß i
Gr öße</w>
t ei
op -
Schri tte</w>
Bild schir
web site</w>
b lo
mo de</w>
at t
I mpor
An wendung</w>
sch rei
C on
ta l</w>
o b</w>
Pix el</w>
gen er
Ord ner</w>
Be arbeiten</w>
ü tz
neu en</w>
feren ces</w>
w ar
si de</w>
ec k
T o
hr t</w>
anzu zeigen</w>
wi e
ter min
s weise</w>
Pfa d</w>
w at
so ur
th an</w>
comp onent</w>
B o
h er
der s</w>
T im
Inhal t</w>
k t
comm and</w>
A ni
a se</w>
G rupp
Be dienfel
st ri
bu t</w>
Fil e</w>
3 .0</w>
ü n
iel sweise</w>
app li
aktiv iert</w>
T ype</w>
- Datei</w>
om e</w>
ge b
f unc
iz e</w>
V ari
S er
se ts</w>
knüp f
k onver
el l
br ary</w>
Ele mente</w>
Ein e</w>
ver ti
st e
g or
ec k</w>
con n
T ei
ä t</w>
P op
öff ent
sch e</w>
di e
Ihr e</w>
Eben en
öff nen</w>
grap h</w>
Pop up
lö schen</w>
f f</w>
Kom men
Än der
t yp
3 D-
fir st</w>
f ter</w>
E ff
wh ere</w>
w indo
proper ties</w>
pas sen</w>
Po sition</w>
An zei
werkzeu g</w>
s ä
r el
or iz
lin ks</w>
ier ten</w>
f o
es s
sta ste</w>
can not</w>
Col or</w>
sp ace</w>
ent fer
en ts</w>
Ta ste</w>
st en
setz en</w>
sch n
pix els</w>
le ar
er halb</w>
Ber eich
row ser</w>
Er eig
ben e</w>
bac k
Op tions</w>
m p
lin k</w>
h r</w>
ein ge
de x</w>
d ung</w>
s crip
poin ts</w>
ic on</w>
z ahl</w>
su pp
op tionen</w>
multi ple</w>
d ruck
St r
Komponen te</w>
F enster</w>
ü ck
ter n</w>
o hne</w>
docu ments</w>
dies er</w>
c i
wur de</w>
s ave</w>
tran s
su b
pr int</w>
loc ation</w>
chan ges</w>
u ter</w>
eit s
c ken</w>
a ti
- Werkzeug</w>
ö r
gro up</w>
an other</w>
w äh
ta tion</w>
sol l</w>
k omp
c ed</w>
D re
pro vi
bac k</w>
an zeigen</w>
XM L</w>
Wer te</w>
verfüg bar</w>
n is</w>
ing le</w>
for e</w>
en z
B ü
sion s</w>
or ig
la r</w>
S ha
- Methode</w>
w o
g h</w>
cont rol</w>
C opy</w>
ter n
resu l
h än
g ing</w>
Obj ect</w>
Be i</w>
B i
Ani ma
t wo</w>
su chen</w>
m e</w>
Ta gs</w>
li gh
h en
Zeich en</w>
ün sch
pl atz
in al</w>
feren ce</w>
blen den</w>
windo w</w>
re d</w>
p el
ma y</w>
le ft</w>
with in</w>
te -
t on
ri ght</w>
l ar
fest legen</w>
eu er
blo g</w>
P unk
ruc ken</w>
conta ins</w>
HTM L</w>
punk t</w>
la ge</w>
k eit</w>
er -
c s</w>
automati sch</w>
as ed</w>
ali si
Sta ge</w>
Re gi
Ele ment</w>
or der</w>
Scrip t-
E s</w>
st ütz
st ro
s -
ra y</w>
Dra g</w>
shap e</w>
l d</w>
Bi blio
ä r
yst em</w>
ek te</w>
do es</w>
ate gor
Vor einstellungen</w>
re qu
f l
ber eich</w>
se m</w>
s ingle</w>
par a
gi bt</w>
cre ated</w>
ch ti
SWF- Datei</w>
En ter</w>
Ar b
An wend
en en</w>
die sem</w>
Ver knüpf
impor t</w>
ba si
re chten</w>
o ber
st or
p -
gew ünsch
enth alten</w>
Lay ers</w>
I m</w>
Bü hne</w>
us ers</w>
re m</w>
cht ung</w>
bel ie
Ver bin
Eigenscha ft
m er
li ght</w>
h oriz
g re
S ave</w>
Objek ts</w>
B r
po sition</w>
c al</w>
Eigenscha ft</w>
the y</w>
s ung</w>
li che</w>
K op
vi d
h e
Ö ff
we i</w>
scha u</w>
or re
Doku ments</w>
Di sp
to p</w>
be g
ab out</w>
UR L</w>
R ah
M ac
C S
wie der
cu st
ch er</w>
bo ard</w>
Vi deo</w>
R G
For m</w>
s atz</w>
ou s</w>
n o</w>
mar k
Z eit
A pp
zu sam
z ieren</w>
ta b</w>
t ten</w>
si cht
ro l
ge m
de termin
hi gh
d a
Beisp iel</w>
verschie den
belie bi
Tran s
Ne w</w>
Instan z</w>
mov ie</w>
in i
fi eld</w>
ev ent</w>
auszu wählen</w>
M as
z ur
gedrück ter</w>
er defin
en e</w>
dat en</w>
ang le</w>
onen ts</w>
el n</w>
conta in
b itma
automati cally</w>
PD F
Dat en</w>
Al l</w>
with out</w>
mo dus</w>
i ge</w>
b ased</w>
lic e</w>
charac ters</w>
St y
PDF- Datei</w>
z wei</w>
t ar
ou ld</w>
er tifi
ein fa
col um
W or
Na ch
M ak
K e
Änder ungen</w>
pu bli
h ol
fil ter</w>
Schrift ar
Blo g
y s</w>
s ure</w>
mat eri
ex ist
aktu ellen</w>
P in
Ih rem</w>
orig inal</w>
ge speich
P l
F eld</w>
y -
inst al
gro und</w>
1 00</w>
yp er
t ly</w>
pro du
in ser
em s</w>
ad ing</w>
N o
y nam
wor d</w>
schni tt</w>
l auf
fol ge</w>
el t</w>
au staste</w>
at or
M austaste</w>
Ad d</w>
s eite</w>
s atz
de p
St euer
th ilfe</w>
n s</w>
c lo
ä l
g ung</w>
for der
b is</w>
Z u
Eigenschaft en
Cre ate</w>
Al le</w>
lear n</w>
i en
gr öß
fi es</w>
bil d</w>
H o
än dert</w>
Öff nen</w>
sä tz
ro u
op- up</w>
me di
inclu de</w>
f lä
do ch</w>
Op tional</w>
K on
rü n
lo ad</w>
lin es</w>
le ts</w>
ek tor</w>
e d
Par ameter</w>
A I
v es</w>
st ra
k ar
ge d</w>
ange wendet</w>
al t
Doku mente</w>
B ri
ynam i
verschie ben</w>
v el</w>
the k</w>
ro p
l ü
ent ly</w>
el y</w>
ad di
P f
An sicht</w>
unter stütz
n t</w>
ei ther</w>
d elete</w>
P S</w>
Do cu
y n
om e
impor tieren</w>
edi ting</w>
an ima
T we
La you
Fü ll
Funk tion</w>
u t
st ed</w>
re du
r end</w>
p op-up</w>
ge t</w>
fon t</w>
at us</w>
wer t</w>
sour ce</w>
setz t</w>
W i
Ser ver</w>
P E
N eu
on s</w>
gefü gt</w>
b ie
ab er</w>
V ie
D ur
t- click</w>
sty les</w>
pre s
na vig
n ing</w>
insp ector</w>
ge öff
S i
N ame</w>
C li
Ausw ahl
0 0
us h</w>
me hr</w>
exist ing</w>
z en</w>
wur den</w>
w el
li ty</w>
in to
gr öße</w>
Mac into
Ch an
y p</w>
ro w</w>
di ent</w>
ben en</w>
Ver wendung</w>
separ ate</w>
expor t</w>
dat ei
charac ter</w>
au se</w>
M i
us es</w>
nis se</w>
mo di
k op
je doch</w>
ge ord
ben utz
ac k
ab les</w>
N um
In Copy</w>
A s</w>
w n
vor hand
o k</w>
comp le
cli p</w>
be fore</w>
art work</w>
Op en</w>
u ri
th rou
re a
min i
m s</w>
kt ur</w>
graphi c</w>
fil l</w>
f al
ble -click</w>
b rowser</w>
appli ed</w>
and s</w>
For mul
scal e</w>
s ein</w>
s ection</w>
mäßi g</w>
ge sam
ele ments</w>
Speci fies</w>
defin iert</w>
c ro
b ec
Mo d
ä ch
lin ien</w>
gr enz
func tion</w>
entsp rech
Regi ster
Fram es</w>
D ar
wh e
specifi ed</w>
specifi c</w>
pre view</w>
m er</w>
O n
Macinto sh</w>
HTM L-
il f
einzel nen</w>
Vie w</w>
Register kar
Mo vi
us s</w>
en ti
em p
ei r</w>
ar ch</w>
Vor schau</w>
H inter
Com m
vi du
th eir</w>
op er
o t</w>
lo w
k om
g rupp
d th</w>
an wenden</w>
Sk rip
y ing</w>
vi ce</w>
mas k</w>
lü s
i es</w>
ele ment</w>
bitma p</w>
ur sp
it em</w>
g -
fel der</w>
defin ed</w>
Grupp e</w>
E v
Bild materi
st än
sett ing</w>
rün gli
n ext</w>
i den
h el
ec li
c opy</w>
be halten</w>
Movi ecli
wäh rend</w>
tra g</w>
ein fügen</w>
de l</w>
adj ust
Proper ties</w>
P age</w>
H el
Ent wur
ursp rüngli
ra hmen</w>
pre set</w>
eff ect</w>
al e
P lay
m u
ent r
el ine</w>
dur ch
do wn</w>
Bri dge</w>
st ruc
sol u
on g</w>
graphi cs</w>
d ynami
al ity</w>
we ver</w>
ver knüp
t ure</w>
pro cess</w>
p lay
n ec
gu age</w>
ex p
benutz erdefin
V oll
To ol
Speich ern</w>
R and</w>
ter na
stro ke</w>
se hen</w>
pre ss</w>
p er</w>
o ver</w>
mo st</w>
inn erhalb</w>
bo th</w>
S hi
P N
I ma
Hinter gr
F eh
Bil des</w>
indi vidu
e st
dra ft</w>
di s
c y</w>
are as</w>
am it</w>
ac cess</w>
Se tt
R ei
Proper ty</w>
J PE
z i
vi sible</w>
s li
gespeich ert</w>
E ing
r on
prin ting</w>
insp ektor</w>
gefü hrt</w>
am er
Komponen ten</w>
H yper
E -
Docu ment</w>
C M
Beisp ielsweise</w>
zusam men
um b
t ru
so und</w>
se g
mi thilfe</w>
metho ds</w>
h at</w>
ge sch
expor tieren</w>
XM L-
Pre ferences</w>
Me ta
M ar
st eh
poin ter</w>
p h
mar ks</w>
ie der
datei en</w>
W ieder
U sing</w>
Po st
ver öffent
th s</w>
te m
pp ing</w>
il e</w>
Registerkar te</w>
po si
hö h
Um sch
Fram e</w>
FL V
Er geb
Bereich e</w>
An zahl</w>
tool s</w>
prü f
indi c
i h
geord ne
ei den</w>
ec ted</w>
a ch
re s
ne hmen</w>
arbeit ung</w>
ad s</w>
Tab elle</w>
Se g
Objek ten</w>
K onver
zeich nen</w>
re ad</w>
or t
na ch
las sen</w>
entfer nen</w>
ek tor
cre ating</w>
aktu alisi
Speich er
Bu tt
wei sen</w>
tem pl
ne u</w>
folgen de</w>
fi gu
be d
applic ations</w>
ac tion</w>
a fter</w>
Ta st
Qu ick
zei t</w>
se qu
n amen</w>
k er
en de</w>
So und
G i
Ab satz
tier ung</w>
ran ge</w>
mo del</w>
ange ben</w>
Ver sion</w>
Be we
v om</w>
throu gh</w>
ne l</w>
me ss
k l
gedrück t</w>
g än
display s</w>
be dienfel
atur es</w>
at ure</w>
whe ther</w>
ung sp
t are</w>
ri g
pro gram
ma in</w>
it ems</w>
be feh
Er weiter
resul ts</w>
para graph</w>
lo ws</w>
l er
f fi
de x
d ate</w>
au ß
anima tion</w>
Rah men</w>
Di es</w>
st andard
r en
pix el</w>
ga be
fel ds</w>
f u
S how</w>
M ust
Bildmateri al</w>
st u
konver tieren</w>
i gen</w>
gleich en</w>
appear ance</w>
Tran sparen
Sel ection</w>
Pro z
Pin sel
F ol
A tt
sym bol
s av
re sp
lin k
ale tte</w>
a ff
St elle</w>
Disp lay
Biblio thek</w>
B y</w>
s ystem</w>
p e
la den</w>
cust om</w>
c t</w>
PDF- Dokument</w>
Gi bt</w>
G ri
t ext
ri chten</w>
prin ter</w>
l at
i s
bei sp
andar d</w>
an ch
Kommen tare</w>
Ke y
Anzei ge
Action Script-
we a
wa ys</w>
op pel
ma l</w>
inclu des</w>
er forder
eff ects</w>
e ch
conta in</w>
Werkzeu ge</w>
Se t</w>
Ih nen</w>
H i
D oppel
to m</w>
s wat
gi g</w>
b ung</w>
aus ge
Sti l</w>
PDF s</w>
ü r
vari able</w>
re e</w>
pas s
ac tive</w>
a ch</w>
V ektor
sol len</w>
par ameter</w>
k on
it ät</w>
hinzu zufügen</w>
gu i
f ac
d on</w>
back ground</w>
a tive</w>
P or
Dokumen t
Arb eits
typ es</w>
ri gh
re move</w>
pan e</w>
o und</w>
il s</w>
geöff net</w>
fi el
er te</w>
ein stellung</w>
am wea
Sett ings</w>
RG B</w>
Dre amwea
ta g</w>
r än
k es</w>
fu l</w>
f unk
bar en</w>
ausgewähl te</w>
T ex
Sk al
Metho den</w>
J e
Inhal te</w>
Eigenschaften inspektor</w>
CM Y
zu ge
z o
t tom</w>
s si
re tur
par t</w>
genscha ften</w>
g aben</w>
einzel ne</w>
drü cken</w>
cal led</w>
c lic
Tast atur
I t</w>
v an
un ds</w>
umb na
tran sparen
on d</w>
o ben</w>
le vel</w>
ge stellt</w>
f as
f an
au th
T yp
Pl atz
E ck
st and</w>
ri m
ort cu
num ber
l auf</w>
in cre
f las
en nen</w>
ea d</w>
di re
cher weise</w>
bedienfel ds</w>
Z iel
Vari ab
Ihr er</w>
Funk tionen</w>
wa y</w>
uri ty</w>
ne ben</w>
lüs sel
fest zu
conver t</w>
Speci fy</w>
F lä
Ak tionen</w>
zeich net</w>
li brary</w>
le t</w>
farb en</w>
as so
Pre f
Entwur f</w>
Benutz er
si tes</w>
s ome</w>
n ung</w>
individu al</w>
hin zu</w>
hen folge</w>
entr y</w>
d ec
cre ates</w>
bo ttom</w>
att ribu
P u
O ut
Br eite</w>
Anwend ungen</w>
wi dth</w>
unterstütz t</w>
tr ä
so dass</w>
re solu
o li
loc k</w>
lo b
in dex</w>
gri ff</w>
fiel ds</w>
defin ieren</w>
defin e</w>
comp onents</w>
b la
Zeit leiste</w>
Z um</w>
S ign
Li brary</w>
Le gen</w>
Ih r</w>
Expor t</w>
ta in</w>
p le
m uss</w>
ei ght</w>
aus w
F rom</w>
Dat en
Blog ein
Ar ray</w>
un t</w>
sp e
se arch</w>
o c
hinzu gefügt</w>
cor rec
com ments</w>
We b</w>
UR L
St atus</w>
Re cht
' re</w>
Än dern</w>
x im
wor ds</w>
schließ en</w>
out put</w>
me as
m m
f ace</w>
er ten</w>
comp uter</w>
as sign
adj ust</w>
L ö
Grafi k
Co de
wer te</w>
unter en</w>
st s</w>
st ru
sh ar
schri ft
mögli ch</w>
ilf s
g ging</w>
enti re</w>
cor ner</w>
a ded</w>
Fü r</w>
De fin
l ing</w>
l -
k tur
ei gen
dies en</w>
dep en
bi lity</w>
Umsch alt
Popup menü</w>
Op tim
H in
Dialog felds</w>
D elete</w>
wor king</w>
wor k
w as</w>
ver w
tool bar</w>
gra dient</w>
festzu legen</w>
den en</w>
a der</w>
Pro gram
Le gt</w>
I D</w>
- Klasse</w>
steh t</w>
st eu
re gi
f low</w>
de aktivieren</w>
d amit</w>
conn ection</w>
b lei
Pa ges</w>
Bei m</w>
Anima tion</w>
AI R</w>
th umbna
tar get</w>
stän di
mögli cherweise</w>
fon ts</w>
do u
defin i
br ush</w>
Ver schie
S mar
Pu bli
G l
ti v</w>
sol l
sel ben</w>
li g
ke y</w>
c ap
ange ge
Pro j
Bil dern</w>
ver sion</w>
tf oli
supp or
sk al
s lice</w>
re ference</w>
pre vi
platz ieren</w>
m on
lay out</w>
k an
dire kt</w>
d -
arb ei
Zei ger</w>
Tim eline</w>
Re feren
Por tfoli
Pix el
Must er
Layou t</w>
C tr
verti k
ta gs</w>
sp ac
sch rän
resolu tion</w>
on tal</w>
li ke</w>
f ul
er ung</w>
Verbin dung</w>
M an
Dat ein
- Dateien</w>
sho w</w>
ne ed</w>
lo aded</w>
informa tionen</w>
bestimm ten</w>
M at
E ach</w>
lin ken</w>
je de</w>
ing -
inclu ding</w>
gi tal</w>
el len
attribu tes</w>
al ität</w>
Th ese</w>
Über prüf
op tim
impor ted</w>
P S
Formul ar
2 .0</w>
0 -
vor h
ruc k</w>
rec t
pat tern</w>
obj ekt</w>
lö sung</w>
gro up
colum n</w>
ce p
amer a</w>
ame ters</w>
Windo w</w>
R ol
In dex</w>
H ö
Er r
D rucken</w>
ti gen</w>
mo d
men ten</w>
men s</w>
lic es</w>
do wn
at h</w>
ar ch
an passen</w>
G en
w ri
verschieden e</w>
v el
v ector</w>
u se
u re
nec ess
medi a</w>
le ss</w>
in k
en ab
chan nel</w>
c op
ad ded</w>
Text feld</w>
Sp ra
H and
ti g</w>
str ing</w>
si m
ri cht</w>
i hr
expor ted</w>
er halten</w>
de st
Dreamwea ver</w>
st ate</w>
sp ot</w>
ra tion</w>
r en</w>
at ur</w>
asso ci
Popup -
M ic
zur ück
s m
par ti
ma in
g it
fa d</w>
direc tly</w>
an sicht</w>
Umschalt taste</w>
R o
Ho wever</w>
Cont rol</w>
wel che</w>
ro t
re ad
p ack
on ent
neu t</w>
horiz ontal</w>
h s</w>
ge t
g ler</w>
g ele
determin e</w>
de ta
d rucken</w>
ch eck</w>
bu ch</w>
beliebi gen</w>
Hin zufügen</w>
Grafi ken</w>
G I
E- Ma
Dokumen ten</w>
C onver
Ab schnitt</w>
z iel
x es</w>
sh ortcu
qu ality</w>
pro file</w>
je des</w>
format s</w>
flä che</w>
en ame</w>
cont ents</w>
con si
clas ses</w>
c enter</w>
bie tet</w>
arbeit ungs
a be
Le se
Doppel klicken</w>
w are</w>
star t</w>
or y</w>
m any</w>
li ch
gewünsch ten</w>
er weiter
ein s
ch en
butt ons</w>
aktu elle</w>
Web seite</w>
K orre
Cont ribu
Bedienfel d
Be grenz
A n</w>
z wei
use ful</w>
ti t
s yn
ro ll
re gu
provi des</w>
necess ary</w>
ma il</w>
ih n</w>
i d</w>
es en</w>
ein zu
ein geben</w>
ab hän
Th en</w>
Tastatur befeh
T ra
Pre view</w>
Kont ur
J ava
Eing abe
Dat a</w>
vi el
se l</w>
m ou
f ra
c en
bestimm te</w>
ber eich
W ör
W ahl
Variab len</w>
Tei l</w>
Sty le</w>
St ri
Speicher ort</w>
K ur
Contribu te-
zu sätz
wh ile</w>
we der</w>
schließ lich</w>
punk te</w>
iden ti
ent ri
d a</w>
contain ing</w>
c le</w>
beisp ielsweise</w>
be l</w>
addi tional</w>
Zei le</w>
Z us
Voll ton
Impor t</w>
Comp uter</w>
C PS</w>
Bildschir m</w>
ü l
pa ths</w>
on -
gan g</w>
fü ll
fal ls</w>
comm ands</w>
anch or</w>
al ler</w>
Ri gh
M ö
H ilfs
verfü gt</w>
tru e</w>
si cher</w>
ier ungs
horiz ont
gel ö
g ged</w>
fü l
fin det</w>
dra w</w>
display ed</w>
cher h
be tt
a den</w>
Zei len
Mö gli
M ul
Lay er</w>
Gr und
wor t</w>
veröffent lichen</w>
st ers</w>
spar ent</w>
sav ed</w>
rech ts</w>
ne e
mou se</w>
la gen</w>
kop ieren</w>
g lob
er neut</w>
ed ges</w>
Sp al
Mul ti
InDe sign
Edi tor</w>
ver sch
v oll
tion ieren</w>
sam pl
re place</w>
ord in
mov es</w>
ma sk
li ert</w>
k orre
instan ces</w>
fan g</w>
ent weder</w>
di men
d den</w>
bil d
be vor</w>
as es</w>
I hren</w>
CS 4</w>
Butt on</w>
Bildschir m
tier ten</w>
sec urity</w>
sch ein
lan guage</w>
l gem
er setzen</w>
d ri
bla ck</w>
an im
Zei gt</w>
Wi th</w>
St ar
Mo dus</w>
Men ü
M u
In st
Farb fel
C u
ä u
templ ate</w>
sicht bar</w>
s eiten</w>
ne ss</w>
nam ed</w>
ge druck
fi l</w>
en ce</w>
Schaltflä chen</w>
Na vig
Ima ge</w>
Bewe g
so ft</w>
sen den</w>
schri e
s ed</w>
ro ls</w>
n äch
n or
me ta
lin ie</w>
le tz
as ing</w>
Z o
Pr int</w>
P ak
Me di
In ser
C ur
B row
Al t-
wir kt</w>
van ced</w>
u fen</w>
sion en</w>
sch au
resp on
pre ser
modi fy</w>
iz ed</w>
f l</w>
er sten</w>
em bed
ei genschaften</w>
Tab ul
St ru
P er
Mo di
Dat a
A fter</w>
par ameters</w>
n ah
ha vi
f en
di o
c ell</w>
Wahl taste</w>
Shi ft</w>
S wat
Ri cht
R es
R en
Punk t</w>
M ini
Grafi k</w>
Bitma p
Bedienfeld menü</w>
v en</w>
or gan
ober en</w>
il -
erforder lich</w>
arbei tet</w>
ar ound</w>
Verknüpf ung</w>
Sti le</w>
Mak e</w>
Komp onent
In dex
G ro
Ev ent
Ebenen bedienfeld</w>
Bitma p-
Bedienfel ds</w>
An ker
whi te</w>
v ol
transparen cy</w>
t ab
sta ti
si red</w>
shap es</w>
sh ould</w>
schrei bung</w>
sc ri
link ed</w>
il y</w>
h ält</w>
ac ces
Text ab
Se e</w>
Post Script</w>
Lö schen</w>
An wei
Ad j
voll ständi
up dat
t s
mi tt
mi ght</w>
fe atures</w>
dra wing</w>
de aktiviert</w>
com bin
bo un
at en</w>
al len</w>
a ge
Schriftar ten</w>
PN G</w>
P -
Li sten
Hö he</w>
Gr au
G er
F el
Befeh le</w>
tran sparent</w>
tr y</w>
th ose</w>
schrei ben</w>
s ur
pla ced</w>
gen den</w>
el ls</w>
de sired</w>
bec ause</w>
be findet</w>
Werkzeu g
Si cherh
S h
Mögli ch
K ategor
JPE G</w>
Fü hren</w>
For men</w>
Expor tieren</w>
Ereig nis
Dur ch</w>
Ch arac
Au to
w and
tern al</w>
ten ded</w>
r ate</w>
pla c
or ing</w>
ol y
nam es</w>
man u
m ei
l ex
h t
e dge</w>
dou ble-click</w>
b ed</w>
angege benen</w>
Vor lage</w>
Schriftar t</w>
Op tions
Mic ro
InDesign -
Gl yp
FLV Play
wo h
v ed</w>
unter schie
supp ort</w>
rop ri
p ri
ma ster</w>
in ts</w>
he ben</w>
f o</w>
entfer nt</w>
dies es</w>
di es</w>
bei behalten</w>
app ropri
ac tions</w>
Verbin d
Tool s</w>
K o
K enn
Ergeb nisse</w>
Ein fügen</w>
Al terna
trans form
steu ern</w>
sli der</w>
s or
re am
oly g
m y
fil ename</w>
fest gele
f enster</w>
er mögli
ein schließlich</w>
ch ron
al ong</w>
Ta g</w>
Po int</w>
L ist</w>
F o
vorhand enen</w>
ursprüngli chen</w>
un den</w>
ta in
symbol s</w>
previ ous</w>
mar k</w>
lo ok</w>
lat er</w>
k ra
format ting</w>
entsprech enden</w>
ch tet</w>
ab ge
Zei len</w>
Sha p
Kan ten</w>
F est
Eff ekt</w>
D ou
A ch
un der</w>
ste hen</w>
pre sen
mini strator</w>
in side</w>
hin aus</w>
gesam te</w>
g ni
ext en
err or</w>
ele mente</w>
do pp
di o</w>
de scri
c a
bes ser
Standard mäßig</w>
S cre
Qu ell
Objek t
O rig
Micro soft</w>
C ust
C op
z iert</w>
ti ge</w>
t ter</w>
swat ch</w>
scrip t</w>
ri chtung</w>
re e
publi sh</w>
prü fen</w>
p li
p alette</w>
in te
gesch lo
fil ters</w>
c ategor
ausw ahl
appli es</w>
ac ity</w>
P an
In fo</w>
For mat
For m
Feh ler</w>
E-Ma il-
Datein amen</w>
Chan ge</w>
CMY K</w>
woh l</w>
w ür
un ti
sho ws</w>
schn eiden</w>
p lu
o ff</w>
mo tion</w>
k enn
h eight</w>
er zeu
er ste</w>
e ar
beg inn
associ ated</w>
ar ray</w>
Ver lauf
M it
Lin ie</w>
Lese zeichen</w>
Hel p</w>
Bitma p</w>
Auf lösung</w>
wo bei</w>
ta ge</w>
standard mäßi
ra st</w>
o w</w>
mar ke</w>
ma chen</w>
konver tiert</w>
ini ti
flas h
eck kra
direc tion</w>
di st
dar f</w>
ch st
bo ok
be finden</w>
att ribute</w>
Ver öffent
Sch war
Pfa de</w>
Mu ster</w>
Inser t</w>
G -
sh ing</w>
se ver
po p</w>
grupp e</w>
g ten</w>
ex ter
ex pres
einge bett
curr ently</w>
benutzerdefin ierte</w>
Twe en-
Sp alten</w>
Po si
O n</w>
Nach dem</w>
D eckkra
1 .
st andard</w>
schni tt
re cht
pre ferences</w>
ink el</w>
il d</w>
gr und
gewünsch te</w>
fin d</w>
fi g
appropri ate</w>
an den</w>
ad dre
Zu griff</w>
Ver sionen</w>
U ni
Rei henfolge</w>
Re ader</w>
Portfoli o</w>
Mar k
Inter net</w>
I C
Druck er
De bu
Anwend ungs
Ab stand</w>
- Objekt</w>
wei tere</w>
vel op
unti l</w>
unterschie d
st ing</w>
si bility</w>
pla y</w>
o b
in t
ge l</w>
ft ware</w>
fol gt</w>
conver ted</w>
c s
auß erhalb</w>
anzu wenden</w>
a b</w>
Tim e</w>
PDF- Dateien</w>
P la
N ur</w>
Mas ke</w>
Hilfs linien</w>
5 0</w>
- B
ü ck</w>
tf enster</w>
sti l
sp err
ma xim
k ungen</w>
it el</w>
in k</w>
h t</w>
di git
bel ow</w>
al lows</w>
abhän gig</w>
Z ertifi
Ra ster
Op en
1 6</w>
un i
thumbna il</w>
te ch
qu e</w>
o wn</w>
mo o
ma p</w>
k u
gel aden</w>
form s</w>
ertifi c
dopp el
di gital</w>
de scrip
blen d</w>
be havi
No ti
Dou ble-click</w>
Di rec
Charac ter</w>
Blogein trag</w>
Aus gabe</w>
Aus gabe
4 0
soll ten</w>
sever al</w>
pack age</w>
obj ek
mi s
mei sten</w>
me m
la pp
je der</w>
ign or
i li
hol d</w>
ge ändert</w>
ex ternal</w>
cont rols</w>
bo xes</w>
Vari able</w>
So und</w>
M aus
Klas sen</w>
Flas h
Fil ter
Farb feld</w>
FL V</w>
Dur ch
Die ser</w>
verti cal</w>
stel le</w>
sec ond</w>
read y</w>
prin ted</w>
pp er</w>
number s</w>
meas ure
inser t</w>
im mer</w>
i si
hi de</w>
gedruck t</w>
es n</w>
do esn</w>
a chten</w>
Ver fü
Tei l
Su b
Lin e
Inter ak
Eck e</w>
Begrenz ungs
A lt</w>
verschieden en</w>
trä ge</w>
ru fen</w>
res sion</w>
rel ative</w>
pro ces
op ens</w>
ne t
nach dem</w>
hand le</w>
group s</w>
ein an
einan der</w>
ch sel
be st</w>
auf ge
adjust ment</w>
Tabul ator
H ist
Grau stu
F T
Ein stellung</w>
Be schrift
An der
- Komponente</w>
v as</w>
tor y</w>
tiv en</w>
sh e
schrie ben</w>
s end</w>
pl an
mehr eren</w>
fül len</w>
for dert</w>
d ruck</w>
colum ns</w>
c ation</w>
al low</w>
Swat ches</w>
P ath</w>
Druck er</w>
zu stellen</w>
ver -
sh ed</w>
s can
ra h
pro j
n els</w>
meta data</w>
lä u
key board</w>
form ate</w>
en able</w>
embed ded</w>
dar gestellt</w>
dar auf</w>
comple te</w>
cli ps</w>
at ch</w>
a gram
Wei se</w>
U p</w>
Schri ft</w>
S ize</w>
L auf
Fil l</w>
Eff ekte</w>
Dar über</w>
Alt- Taste</w>
Ad vanced</w>
. 0-
z un
vi ces</w>
ver fügen</w>
tz lich</w>
t re
so wie</w>
selec ting</w>
s on
requ ir
re view</w>
per cen
o p</w>
l au
e p</w>
de sign</w>
bes on
a ga
B ar
Anzei ge</w>
Ac tions</w>
ver y</w>
un der
st ate
ss -
sp an</w>
ro p</w>
op acity</w>
o ff
num eri
m el
hel p</w>
hand elt</w>
f t-
e st</w>
clic king</w>
c ase</w>
b it</w>
age ment</w>
W ar
Transparen z</w>
Sp ri
R ec
Pref light</w>
On ly</w>
Moviecli p</w>
Ereig nis</w>
A s
ver sions</w>
u i
tier te</w>
tei len</w>
platz iert</w>
li ste</w>
ier arch
g th</w>
fü hrt</w>
di c
defini tion</w>
boun ding</w>
bil der</w>
ber e
b ein
ame space</w>
ah len</w>
addi tion</w>
a x
Verfü gung</w>
Sty les</w>
S im
Pro fil</w>
P ap
Kan te</w>
Hintergr und</w>
H ilfe</w>
FL A
Display s</w>
Datei größe</w>
v ing</w>
over ri
je wei
h ere</w>
fol gen</w>
f re
entsp richt</w>
en ing</w>
de select</w>
conver sion</w>
clo se</w>
b re
b are</w>
aus geführt</w>
Tab ellen
Sch ni
P rü
P as
P I</w>
Mod ell</w>
M ess
Li v
Kont ur</w>
Dar stellung</w>
wen de
vid 00
ul l</w>
tor i
struc ture</w>
stra tion</w>
sch t</w>
r vid
r un
ol d</w>
metho de</w>
l ying</w>
l rvid
kom bin
indic ates</w>
hi dden</w>
h äu
geordne ten</w>
dre i</w>
dre hen</w>
der zeit</w>
comp ression</w>
be en</w>
Zertifi k
Video s</w>
Su chen</w>
Schni tt
S ome</w>
Re ference</w>
R ück
Meta daten</w>
Lin ien</w>
Impor tieren</w>
Farbfel d
Comp onents</w>
Bo ok
2 5
zuge wi
y scale</w>
vari ables</w>
ungs -
tur n</w>
th ree</w>
tei l
stru k
stor y</w>
s ungen</w>
ri chti
o ve</w>
lo k
gesam ten</w>
en co
cu lar</w>
beliebi ge</w>
at ta
ab ove</w>
Text rahmen</w>
Str ing</w>
Spal te</w>
Righ t-click</w>
Quick Time</w>
Li ve</w>
K ap
Gen er
Ex tended</w>
Err or</w>
En d
D o</w>
C A
B rowser</w>
B a
B -
Ar t</w>
äh n
zusätz liche</w>
vi su
ten si
s a
requ ire
po lic
instal led</w>
gri d</w>
gra fi
festgele gt</w>
entri es</w>
de ssen</w>
correc t</w>
cont in
bei den</w>
ar d
anzu passen</w>
a tionen</w>
Web sites</w>
Vor schau
T I
Ri chtung</w>
Qu er
Komp rim
Instan zen</w>
Be darf</w>
Au th
Au f</w>
Att ribute</w>
Att ribu
z e</w>
w er</w>
vorh anden</w>
un ten</w>
pa ste</w>
no te</w>
la tion</w>
la st</w>
in ation</w>
grap hs</w>
gen om
g g
en d
e t
de vice</w>
d unk
c ertific
ax is</w>
atur en</w>
am o
URL s</w>
Sch lüssel
S am
Pf ei
Pf ad
Java Script</w>
Ger ä
GI F</w>
Flash -
D es
Be arbeitung</w>
Adj ust
zur ück</w>
zu gr
vorhand ene</w>
unk t</w>
tiv ely</w>
te sten</w>
t ät</w>
re pres
pla ces</w>
pass word</w>
ord ner</w>
nee ded</w>
gra m</w>
gen de</w>
f rei
de sign
d el
ce ment</w>
ber eit
auth oring</w>
ar row</w>
al low
aktualisi eren</w>
St ellen</w>
Referen z
Proz ent
Pro to
Neu e</w>
Möglich keit</w>
Mit te</w>
Hintergr und
Ein ige</w>
Cont rol
s qu
over la
out side</w>
n ed</w>
me -
inst ead</w>
fol ders</w>
er setzt</w>
ein ige</w>
ein be
dur ing</w>
defin es</w>
ch ec
anzu geben</w>
al ign
V iel
Symbol s</w>
Skal ierung</w>
Rei he</w>
Kop ie</w>
Klas sen
FL A</w>
Al lgem
Ach se</w>
zei le</w>
tion iert</w>
sim il
s moo
ru n</w>
ou r</w>
o sing</w>
lo ading</w>
lar ge</w>
inter ak
ihr e</w>
ig er</w>
fi g</w>
err ors</w>
eh ol
e qu
ch ed</w>
ausge blen
au p
at ten</w>
al terna
aff ect</w>
a ges</w>
Sch ie
S lice</w>
S cal
Ra ster</w>
Punk te</w>
Korre ktur
Gra p
Firewor k
En de</w>
Deckkra ft</w>
Be achten</w>
Ak tion</w>
Über füll
zeich nis</w>
we chsel
viel e</w>
ung se
th ek
t ors</w>
shar ed</w>
re vie
pro ble
ph a</w>
ome tri
lin ien
li eren</w>
kl ein
j e</w>
inser tion</w>
in put</w>
höh er</w>
high ligh
expor tiert</w>
doppel klicken</w>
d ent</w>
cust om
bestimm t</w>
bein g</w>
at ely</w>
amo unt</w>
ad ding</w>
V ector</w>
Symbol leiste</w>
Symbol e</w>
S ec
Pr o</w>
P olyg
M al
Ctr l-
C ap
Ar ra
. ht
vid 0
tu p</w>
ti -
th er
text ure</w>
st am
sign ature</w>
ro ss</w>
rect angle</w>
pre sets</w>
m l</w>
loc al</w>
lan g</w>
instan z</w>
es s</w>
enab led</w>
ec tive</w>
e ts</w>
e as
dra gging</w>
der en</w>
bestim men</w>
b st</w>
auswahl -Werkzeug</w>
aus blenden</w>
ac t</w>
Trans form</w>
T yp</w>
Spra che</w>
So unds</w>
Sicherh eits
Re gel</w>
Publi sh</w>
Popup- Menü</w>
Op er
Lin k</w>
F u
Ein fü
1 0</w>
te st</w>
stor ed</w>
resu lt</w>
pre v
plac ehol
per form
lo ck
k er</w>
instal liert</w>
inclu ded</w>
geschlo ssen</w>
ge geben</w>
fi x
ex cep
ev en</w>
edi tor</w>
do ku
dimen sions</w>
de u
cal l</w>
bei t</w>
ander es</w>
an s</w>
Stru ktur</w>
Smar t</w>
O ffi
Flä che</w>
Farb ver
Con tain
Be schreibung</w>
Ar beit</w>
z e
scha cht
m alen</w>
le se
k no
ick er</w>
ge setzt</w>
eh men</w>
determin es</w>
da zu</w>
comm on</w>
blen ding</w>
a g
Verknüpf ungen</w>
Schie bere
S yn
Ren der
Par a
Ne t
Fü gen</w>
Firework s-
Farb t
Ex pl
Ele menten</w>
Ar ten</w>
An fang</w>
äl t
ß en</w>
suppor ts</w>
ss es</w>
schließ end</w>
scal ing</w>
qu e
produ ce</w>
pl es</w>
nü tzlich</w>
navig ation</w>
le ar</w>
l on
h ält
gui des</w>
ger a
ge marke</w>
expres sion</w>
c ir
ber ei
be steht</w>
aus führen</w>
at ten
al ways</w>
ad ds</w>
XM L
Wor k
Wieder gabe</w>
Trans form
L an
E PS</w>
Befeh l
är ke</w>
skal ieren</w>
sel bst</w>
rot ate</w>
retur n</w>
re presen
mess age</w>
lrvid 40
li sts</w>
lan k</w>
i ed</w>
i c</w>
g eri
er dem</w>
ent lang</w>
cu s</w>
benutzerdefin ierten</w>
b al
au m</w>
W ort</w>
Shap e</w>
Sha der
S ie
Program m
Options leiste</w>
Mo v
Kont ext
Hyper links</w>
G ui
Expl or
Blo g</w>
Bildschirm lese
1 2
über lapp
wi t
wi se</w>
tech ni
ss ing</w>
seg ment</w>
schn ei
schein ungs
rü cken</w>
provi de</w>
play back</w>
mar ken</w>
l eich
key frame</w>
k ein</w>
impor tiert</w>
h eit</w>
con di
c ing</w>
bi blio
al y
al ready</w>
Verschie ben</w>
Sie he</w>
S z
S -
Photo sh
Mo vie
Komponent en
K -
H aup
Einfü gemarke</w>
Dre h
De aktivieren</w>
D up
Biblio thek
B len
An d</w>
Ado be
yp en</w>
vor nehmen</w>
versch oben</w>
ver hin
v ar
up date</w>
sätz e</w>
ste ps</w>
sp iel
sk in</w>
s sible</w>
s lices</w>
s ample</w>
rol l</w>
r ing
par ent</w>
pa in
k lic
iden tifi
ger ufen</w>
gem eins
fa hren</w>
f ying</w>
einfa ch</w>
di stan
cs 4</w>
chan nels</w>
categor y</w>
behavi or</w>
as sign</w>
ari es</w>
aga in</w>
ac ross</w>
S V
Orig in
Lin ks</w>
Lan guage</w>
Fil es</w>
Fel der</w>
Er scheinungs
ä le</w>
zugewi esen</w>
wi ck
w ör
ver s</w>
ver besser
tr enn
tim es</w>
ta gged</w>
syn chron
sp read</w>
simil ar</w>
shortcu ts</w>
ro ws</w>
rec ei
po ssible</w>
pl at
modi fi
iz ation</w>
il t</w>
high er</w>
g ger</w>
berei ts</w>
ben ennen</w>
beg in
be sten</w>
b row
b or
assign ed</w>
W ir
U p
Para graph</w>
Out put</w>
Mi sch
F ra
Do wn
D rei
Cu e-
Ctrl- Taste</w>
Cli p</w>
An y</w>
wei st</w>
verknüp ft</w>
tion ary</w>
speci al</w>
sch war
s or</w>
regu lar</w>
polic y</w>
percen tage</w>
pas st</w>
p lic
ou gh</w>
n ers</w>
measure ment</w>
gri ff
geordne te</w>
g ang
fas st</w>
en ter
con text</w>
chan ging</w>
blei bt</w>
ba se</w>
aktualisi ert</w>
Zo om</w>
Z wi
Z elle</w>
Vor gabe</w>
Vor der
Verbind ungs
TI F
Pre ss</w>
Photosh op-
Instan z
Inst al
Erscheinungs bild</w>
De termin
Control -click</w>
Aus richtung</w>
A PI</w>
- Eigenschaft</w>
äh l
vi ga
ursprüngli che</w>
um e</w>
ta s
str ator
sm all</w>
righ t-click</w>
re size</w>
por t</w>
li sten
le x</w>
la bel</w>
k ont
h ierarch
h es</w>
figu ri
fe ature</w>
ex am
ei fen</w>
e mail</w>
dynami c</w>
digit ale</w>
dest ination</w>
cur ve</w>
ck et</w>
c er
and -
a der
Web seiten</w>
W inkel</w>
Schwar z</w>
Re du
RG B-
Qu alität</w>
Ne tz
N ext</w>
Moviecli ps</w>
Mak er</w>
La den</w>
Je de</w>
Ent fer
Dokumen tfenster</w>
Dat ent
Aus wählen</w>
Au tomati
Au dio
A S
äch st</w>
work flow</w>
un abhängig</w>
st atus</w>
st at
si mp
sen det</w>
resul ting</w>
redu zieren</w>
que e</w>
per i
o us
komp rim
ke hren</w>
inter action</w>
gl yp
g ül
g te</w>
flash .
f rü
er e
ein blenden</w>
d ele
comple x</w>
comp ati
b lu
auf gerufen</w>
Z iel</w>
Veröffent lich
Verlauf s
Trans forma
T ou
T on
Sta pel
St andard</w>
S atz</w>
Prü f
Platz hal
Na viga
Mov ie</w>
L ein
H and</w>
Grap hi
De ta
B el
Aus nah
Ak tiv
y .
ver schacht
v en
suppor ted</w>
st ore</w>
spac es</w>
sha do
sch le
require d</w>
proces sing</w>
plan e</w>
pa per</w>
näch sten</w>
neu es</w>
n ungs
min im
low er</w>
ligh t-
le sen</w>
k en
hö hen</w>
h erstellen</w>
gra yscale</w>
glob al</w>
gel ad
fü hr
flä chen</w>
c el</w>
aktiv en</w>
Ver halten</w>
To ol</w>
Tastaturbefeh le</w>
Tab ellen</w>
T ech
Steuer ungs
Pro ble
Pla ce</w>
Origin al
Obj ec
O ver
Mi tt
Listen er</w>
K rei
Grupp en</w>
Feh ler
F ind</w>
Explor er</w>
Er stellt</w>
Cust om</w>
Befehl staste</w>
Adobe -
1 9
Überprüf ung</w>
z err
wer e</w>
w ell</w>
tz en</w>
standard mäßig</w>
ser vice</w>
re f
ra l</w>
pr o</w>
per form</w>
obj ekte</w>
navig ieren</w>
mo des</w>
mat ch</w>
l ang
je dem</w>
häu fig</w>
fo cus</w>
f es
ev ents</w>
descrip tion</w>
contain er</w>
comp re
chst aben</w>
can vas</w>
c amera</w>
blei ben</w>
be we
b order</w>
au dio</w>
ange d</w>
Zwi sch
Tou ch
S lices</w>
Pro file</w>
P alette</w>
Op tion
Mat ri
Lin ien
L es
L ei
Kop ieren</w>
Hyper link</w>
Hel lig
Füll ung</w>
F all</w>
Di agram
Arb eiten</w>
verknüp fen</w>
verfüg baren</w>
ver wende
val i
ur ch</w>
tu tori
tri e
tit le</w>
t -</w>
sti l</w>
sha der</w>
mas ke</w>
lo gi
klic kt</w>
key frames</w>
ge hö
fü gt</w>
for t
f la
bi li
beginn ing</w>
be zeichnet</w>
auszu blenden</w>
al er
ad urch</w>
ac tiv
Twe en</w>
St ream
S ystem</w>
Pro du
Pref light-
Post Script-
M on
Kenn wort</w>
H alten</w>
Fest legen</w>
D a</w>
Bo x</w>
Beisp iel
App ly</w>
Al s</w>
wechsel n</w>
w ould</w>
updat ed</w>
tra ck
tier ungs
te mpor
ta x</w>
sp ä
ro tation</w>
ren der
re stri
r ä
parti cular</w>
p fad</w>
ous ly</w>
li p
lei sten</w>
k ol
i p
h in</w>
geri chtet</w>
genom men</w>
func tions</w>
fin al</w>
ele ase</w>
ec ting</w>
distan ce</w>
comp o
be arbeitet</w>
al pha</w>
Th e
SWF- Dateien</w>
Ra di
Naviga tions
Kont roll
Fu ß
Fo to
Fil e
Die ses</w>
Brow se</w>
Ak tu
0 00</w>
zugr eifen</w>
zi fi
z ie
unter halb</w>
trans forma
t em</w>
ste p</w>
so ftware</w>
si te-
si ch
schn ell</w>
s ers</w>
retur ns</w>
ra ti
per sp
pa int</w>
or ed</w>
mov ed</w>
ma de</w>
lin e
li gen</w>
isi eren</w>
h ea
gra y</w>
fo o
fi x</w>
ermögli cht</w>
en z</w>
e bene</w>
con struc
comp il
cho osing</w>
ch te</w>
ber ech
be schrän
addre ss</w>
ad d
ac tu
a tions
Wör ter</w>
St ro
Seg ment</w>
Scre en</w>
Schiebere gler</w>
S yst
R I
Pan el</w>
Pak et</w>
Pa int</w>
Mo de</w>
Menü s</w>
Lo ader
Kontext menü</w>
Kommen tar
Kom bin
Kan al</w>
Inhal ts
Ihr es</w>
Formul are</w>
Druck bo
Col ors</w>
1 6
ß e</w>
verw alten</w>
ur es</w>
t op
swat ches</w>
stro kes</w>
state ment</w>
stat t</w>
st op</w>
s wit
re pe
program m
ol o
ne sted</w>
n utz
mov ing</w>
m it
k o
inter face</w>
inte gri
gelö st</w>
exter nen</w>
er ungs
eingebett e
cor respon
comm un
com ment</w>
certific ate</w>
c ells</w>
bar s</w>
b y
ar t</w>
ange geben</w>
ang les</w>
Vor einstellung</w>
S ä
Pix eln</w>
Modi fi
Le er
Key frames</w>
Haup t
FLVPlay back
FLA -Datei</w>
F äl
Cre ates</w>
Conver t</w>
Com ments</w>
Ba si
Anwei sungen</w>
Anima tions
zusam men</w>
zu g</w>
zo gen</w>
wie der</w>
wei ter</w>
vie wing</w>
ver ring
tr au
ti k
t ness</w>
star ten</w>
st op
s ort</w>
re fl
ra ster
p ha
mo du
li sted</w>
li cht</w>
komp lex
k las
it -
ho wever</w>
fig ure</w>
er n
ein gefügt</w>
dar in</w>
ch ild</w>
c ould</w>
b lock</w>
b lank</w>
Zei t</w>
Str ings</w>
S can
Quer ver
Po ints</w>
Pin sel</w>
O ther</w>
Neu es</w>
Medi a</w>
Graustu fen
Fäl len</w>
Fil ters</w>
Erweiter t</w>
Determin es</w>
De select</w>
D rücken</w>
Cont ent</w>
Con n
App lic
zu weisen</w>
vor ge
tri angle</w>
tei lt</w>
sequ ence</w>
sel ine</w>
seg ments</w>
schri ften</w>
schni tten</w>
ra ster</w>
placehol der</w>
ol er
o s</w>
n ie
in dex
i cht</w>
hält nis</w>
gui de</w>
gleich e</w>
fas sen</w>
er ziel
en ed</w>
em bed</w>
ec ause</w>
depen ding</w>
d ing
co de
cal cu
bo ok</w>
bar keit</w>
as sets</w>
app ro
St am
Schri tt</w>
On ce</w>
Mitt el
Le ts</w>
Kategor ie</w>
Inhal ten</w>
In Cop
Dat eit
Bereich s</w>
B ecause</w>
Ander e</w>
A lig
zei t
wh at</w>
wei s</w>
w eich
w and</w>
um in
to bj
st re
shortcu t</w>
schni tte</w>
pro mp
por tions</w>
ord nen</w>
ni pp
n en
mar quee</w>
ma kes</w>
lo ads</w>
lar ger</w>
kon figuri
j ust</w>
i lity</w>
hän gt</w>
ge -
fin i
figu ration</w>
en c
cro ss-
c e-
bec om
auf geführt</w>
ab e</w>
Stro ke</w>
Standard einstellung</w>
Skrip t</w>
Pro gre
Platz ieren</w>
Obj ects</w>
Num ber</w>
InCop y-
Ab satz</w>
w ard</w>
ur en</w>
ungsp ro
ungs zeichen</w>
transform ieren</w>
st ung</w>
sour ces</w>
so li
si cher
rel ated</w>
regu lä
rah mens</w>
qu alität</w>
oku s</w>
na p</w>
len gth</w>
k ur
incre ase</w>
gleich zei
en ding</w>
edi table</w>
ec ke</w>
docu men
d ar</w>
cu e</w>
conn ect</w>
co ordin
ch ap
ben ö
al -
Zeich nen</w>
Z u</w>
X -
Ver lauf</w>
Ver größ
Se ts</w>
S o</w>
Proz ess
No te</w>
N or
Kon struk
Komprim ierung</w>
H D
Ge ometri
For mu
Farb felder</w>
FT P</w>
F lex</w>
Event .
D A
Con nec
Be arbeitungs
A re
über geben</w>
wand eln</w>
verschacht el
verknüp ften</w>
unter sch
su cht</w>
st ates</w>
squ are</w>
si chti
schle un
pain ting</w>
n ungen</w>
n ten</w>
ma king</w>
inst ruc
in tensi
im pro
hän gen</w>
gleichzei tig</w>
gelö scht</w>
funk tioniert</w>
for e
follo ws</w>
flas h</w>
fes sion
fac es</w>
en s
becom es</w>
aus gelöst</w>
ar ds</w>
Zus am
Z ust
Wor d</w>
Vollton farben</w>
T ie
T able</w>
Sk in</w>
Schaltflä chen
S or
Proj ekt</w>
Pre set</w>
Man a
M er
Lein wand</w>
Kop f
Konver tierung</w>
I den
Hintergrund farbe</w>
Gri d</w>
Formu lar</w>
Fil m</w>
F ree
F iel
Ev ent</w>
Ein trag</w>
E mp
Be ding
B ar</w>
Aus druck</w>
Au to</w>
wieder hol
vollständi g</w>
vi er</w>
ver größ
v els</w>
th ere</w>
templ ates</w>
ta r</w>
sp ro
scrip ts</w>
sc roll</w>
ri cht
res se</w>
qu ick
pro gre
posi tionieren</w>
o ften</w>
nor m
no ch</w>
ne ten</w>
navig ate</w>
n on-
n olo
le gt</w>
komp ati
il li
gener ated</w>
gen au
g- Taste</w>
f it</w>
erzeu gen</w>
er st</w>
entsprech ende</w>
ec tions</w>
direc tory</w>
ch eck
bereich s</w>
bei de</w>
Zusam men
Werkzeug leiste</w>
U T
Text es</w>
Stri ch
Str g-Taste</w>
Steuerungs bedienfeld</w>
Star t</w>
Pf ads</w>
P icker</w>
Offi ce</w>
Mo ve</w>
M es
Li cht
K la
Forma tierung</w>
Farbfeld bedienfeld</w>
F okus</w>
F ir
Eingabe taste</w>
Comm and</w>
Cli p
Begrenzungs rahmen</w>
Au ß
Anker punkt</w>
2 00
. .</w>
' ve</w>
ze p
tim m
th ough</w>
te ten</w>
stell ungs
stati c</w>
standardmäßi ge</w>
sp unkt</w>
so wohl</w>
skal iert</w>
si eh
sho wn</w>
se t
requir e</w>
ra ther</w>
quick ly</w>
pp er-
on es</w>
ne ga
n te</w>
k eiten</w>
k ed</w>
j ob</w>
indic ate</w>
höh t</w>
h il
ful ly</w>
fer n</w>
exp and</w>
en sters</w>
emp ty</w>
cop ied</w>
chti g
begin nen</w>
basi erte</w>
aus gerichtet</w>
at ors</w>
Su ch
Rah mens</w>
Pap ier
Num mer
Navig ieren</w>
Mini atur
Ko ordin
Impor t
I -
F on
Ereig ni
De fault</w>
C an
Br ush</w>
Beschrift ung</w>
Anwei sung</w>
Anima tionen</w>
3 .0-
über prüfen</w>
än der
ä st
zei ger</w>
w ed</w>
ver se</w>
v al</w>
tz e</w>
ti vi
ter buch</w>
t ti
t ables</w>
sä ch
stell ten</w>
sim ple</w>
she et</w>
sampl ing</w>
represen ts</w>
redu ce</w>
or -
ol e
oc cur
metho den</w>
men us</w>
maxim um</w>
main tain</w>
läu fe</w>
l ung</w>
gän gig</w>
gän ge</w>
gi ve</w>
gener ate</w>
f -
erziel en</w>
en ces</w>
e ben
dis ab
da von</w>
construc tor</w>
cer tain</w>
basi c</w>
an y
ad ministrator</w>
ab geschlossen</w>
Wer ten</w>
Web browser</w>
Vor lagen</w>
Textab schnitt</w>
Tex te
T em
Seg mente</w>
Sch ließ
R S
Pa ste</w>
O r</w>
Netz wer
Na ch</w>
Gri ff
D rop
Comp le
Auth or
Auswahl -Werkzeug</w>
Aktiv ieren</w>
Ad mini
A ssi
äst chen</w>
y right</w>
vorh eri
var ie
varie ty</w>
ungsp fad</w>
um ge
tim eline</w>
stil ler</w>
star ting</w>
spe zifi
spe ziel
sp r
schrei b
proj ect</w>
pan els</w>
on ce</w>
mess ungen</w>
mas ks</w>
man agement</w>
ke ep</w>
in s
größ er</w>
ge ther</w>
fil led</w>
er höht</w>
chap ter</w>
biblio thek</w>
beson ders</w>
be arbeit
ar en</w>
an stelle</w>
Zeichen folge</w>
Tra ck
Steuer ung</w>
Sha der</w>
Se tup</w>
Referenz hand
P en</w>
Modi fy</w>
Kur ve</w>
In clu
I D
H al
Gra dient</w>
E m
E l
Di stiller</w>
Beweg ungs-
Benutz ern</w>
Auß erdem</w>
Aus wir
Attribu t</w>
An wenden</w>
Ad ministrator</w>
A t</w>
A li
-B it-
zun ächst</w>
zuge hö
zugehö ri
wieder gegeben</w>
verti cally</w>
ver knüpf
ver an
th ing</w>
ta ins</w>
t ts</w>
str ings</w>
st ac
so unds</w>
smoo th</w>
sh are</w>
sch er</w>
s eine</w>
re moves</w>
re co
publi shed</w>
pla cement</w>
on to</w>
ma gni
lon ger</w>
lo ad
gera de</w>
gener iert</w>
gel n</w>
fore ground</w>
fl atten
fil ls</w>
f requ
ek ten</w>
e very</w>
du plic
de velop
de t
d ings</w>
book marks</w>
ben an
aus richten</w>
at us
al le
TIF F</w>
T itel</w>
Spri te</w>
Smar t-
Se arch</w>
Recht eck</w>
PN G
P lu
O ber
Mana ger</w>
L än
Kommen tar</w>
J D
Hist o
Gro ß
FLVPlay back</w>
F rei
Drei eck</w>
Di re
Deta ils</w>
Defin i
C y
Benutz erdefin
Auf gaben</w>
Auf gab
Are a</w>
Arbeits bereich</w>
An schließend</w>
wri te</w>
wen iger</w>
vertik alen</w>
to gether</w>
tas ks</w>
stra i
stell te</w>
separ aten</w>
sel f</w>
ro le</w>
rei henfolge</w>
rea der</w>
ra di
provi der</w>
per mis
p hoto
num mer
n es</w>
n amespace</w>
mat ches</w>
mark er</w>
lo ok
li st
is n</w>
ima l</w>
ihr er</w>
ho ch
gewäh l
g in</w>
f our</w>
er er</w>
einzel nes</w>
eig net</w>
down load</w>
dis able</w>
dec re
com men
ch anged</w>
c tion</w>
blu e</w>
art board</w>
ar ti
an z</w>
al ler
Sign atur</w>
S c
Regi stri
M in
M al</w>
Kap itel</w>
InDesign- Dokument</w>
Hi er</w>
H er
Gui des</w>
Druckbo gen</w>
CMY K-
C las
Ausnah me</w>
ActionScript- Code</w>
- Taste</w>
z ähl
y ed
yed ro
vor schau</w>
vertik al</w>
ver trau
un de</w>
u t</w>
thumbna ils</w>
ta ke</w>
standardmäßi gen</w>
sperr en</w>
soll te</w>
siz es</w>
sch lüssel
s ome
s ei
pro to
pr ä
perform ance</w>
par ts</w>
overri de</w>
n on
lä ssi
loc ate</w>
lo se</w>
kop iert</w>
k ästchen</w>
k lar
incre ases</w>
in hal
in -
im ple
il lu
ier tes</w>
i pe
highligh ted</w>
h eiten</w>
gli ch</w>
gen e</w>
ge zeichnet</w>
fo und</w>
er höhen</w>
ein -</w>
d .</w>
correspon ding</w>
cont rast</w>
col l
be grenz
ausw ahl</w>
ausgeblen det</w>
aufge fordert</w>
al tern
adjust ments</w>
Zo om
Zeichen fläche</w>
Z ellen</w>
W eich
Vor gang</w>
S lic
Pr ä
Maus zeiger</w>
Liv e-
Kategor ien</w>
I M
H old</w>
Geometri c
F a
Dire kt
Anzeige objek
An zeigen</w>
8 0</w>
3D- Modell</w>
ön e</w>
zu behalten</w>
zeich nung</w>
zeich ner</w>
z er
yedro pper</w>
wor ks</w>
vi ron
us hes</w>
uni que</w>
um zu
ter i
ss ed</w>
specifi es</w>
speci ally</w>
rea ders</w>
proble ms</w>
p ur
mat ri
letz ten</w>
key s</w>
i z</w>
i se</w>
her unter
h .</w>
geb ung</w>
ge zeigt</w>
g s
g keit</w>
fil ter
fal se</w>
erzeu gt</w>
ermögli chen</w>
enco ding</w>
einfa che</w>
ein igen</w>
eigen en</w>
eigen e</w>
durch suchen</w>
di erung</w>
dar über</w>
b righ
an wendung</w>
acces sible</w>
Zus atz
Wi dth</w>
Vor gaben</w>
Voll bild
Viel zahl</w>
Tool box</w>
Tei le</w>
Rol le</w>
Qu ad
PDF Maker</w>
M S</w>
Korre ktur</w>
Kontur en</w>
Kontroll kästchen</w>
Fü gt</w>
Ele ments</w>
D adurch</w>
Be fore</w>
Anzeige objekt</w>
An ti-
Al ph
Ac ces
0 .
- Format</w>
- Bedienfeld</w>
zo om</w>
wör ter</w>
wir ken</w>
wei te</w>
vor lage</w>
verhin dern</w>
verbesser n</w>
ver ändert</w>
ver bin
ti p</w>
ti cal</w>
th ers</w>
te mp
t at
stru ktur</w>
sm aller</w>
schri ft</w>
rü ck
ru ler</w>
re sources</w>
pro gram</w>
p i</w>
occur s</w>
n er
mm ern</w>
listen er</w>
k ten</w>
k ennen</w>
it or</w>
il d
ig ung</w>
ier ungen</w>
i th
hand les</w>
h er</w>
gor ith
gener ieren</w>
ge st
ge setz
expor ting</w>
einz igen</w>
ec u
ea si
e specially</w>
dra wn</w>
do main</w>
dic tionary</w>
deta ils</w>
de vices</w>
custom ize</w>
clo sed</w>
ben ach
bei zubehalten</w>
b es</w>
atta ch
assign ment</w>
a pan
Zwisch enab
Video -
Tem pl
Sch rei
Ro t
Richt linien
R E
R -
Pre sets</w>
P ipe
P IC
N o</w>
Mo tion</w>
Mas k</w>
Konver tierungs
Key frame</w>
Ima ges</w>
Hi de</w>
Gro up</w>
Funk tions
Fol genden</w>
Fil m
Farbt on</w>
Ereignis -
Do wn</w>
Direkt auswahl-Werkzeug</w>
C or
Blo gs</w>
Auto CA
Auswir kungen</w>
Auf zähl
Adjust ments</w>
Acrob at
- Instanz</w>
über geordneten</w>
zei ge</w>
x y</w>
wer t
w ra
vie ws</w>
ver einfa
ver arbeitung</w>
tz t</w>
tt ing</w>
tra ck</w>
tat säch
stan t</w>
st and
sp ra
sli de</w>
si chten</w>
sampl es</w>
r yp
pp ed</w>
on line</w>
näch ste</w>
na tive</w>
men t
mem ory</w>
me ans</w>
mark ieren</w>
jewei ls</w>
je den</w>
impor tierten</w>
horizont alen</w>
h ilf
gen en</w>
gehö ren</w>
g o
fi cation</w>
erweiter n</w>
er war
en viron
emp el</w>
ein zufügen</w>
eich en</w>
eas ily</w>
du pli
di sc
de sk
ch -
c en</w>
basi erten</w>
ba seline</w>
at u
at er</w>
align ment</w>
al ter</w>
ak an
XML- Datei</w>
Wei ß</w>
Web site-
Vorder grund
T i
Su che</w>
Sel ected</w>
Seiten ver
Se para
Scal e</w>
S on
Re move</w>
Ne u</w>
Modifi zieren</w>
Layou t
Lauf zeit</w>
Kla mmern</w>
Gener al</w>
Formular felder</w>
F e
Cur r
Ctr l</w>
Comp onent</w>
C al
Bitma ps</w>
Ber e
Be schnei
Ac tiv
über eins
wi chti
vid0 2
v e
unterschied liche</w>
trans form</w>
tern s</w>
sub menu</w>
strai ght</w>
spac ing</w>
sp i
scre ens</w>
schrei bt</w>
sch es</w>
s yst
s in
rei ch</w>
re ading</w>
pro files</w>
pro ce
pre f
or ien
o d</w>
mo bil
mi d
ma ins</w>
lok alen</w>
lock ed</w>
li t</w>
l lt</w>
kom men</w>
iz ing</w>
impor ting</w>
ic k</w>
i val
h yper
ge sperr
func tion
f än
ex ecu
em a</w>
ec tr
ec ks</w>
dist ribu
dien ts</w>
deu tet</w>
de klar
contin ue</w>
consi der</w>
c ases</w>
bu il
bereich e</w>
basi er
b ro
att dessen</w>
alterna tive</w>
aff ects</w>
a way</w>
Zwischenab lage</w>
Zusatz modu
Z ahl</w>
Windo w
Ver w
Text felder</w>
S it
S ek
Pro vi
Pr int
PDF- Dokuments</w>
Mas ken
Lo ad</w>
K l
Inhalts ver
Illu strator
Hyper link
Füll farbe</w>
Form ate</w>
Er stellung</w>
Eing abe</w>
Ein z
Durch suchen</w>
Disp lay</w>
Datei format</w>
D ruck</w>
D amit</w>
Comp u
Bu ch
Brow ser
Bo ole
B al
Au s</w>
über ge
Änder ung</w>
zu vor</w>
z es</w>
wer ten</w>
wer s</w>
verknüpf te</w>
unterstütz en</w>
ungs vor
um fasst</w>
u ally</w>
t wor
swit ch</w>
stam p</w>
schnitt s
sch einen</w>
ruc ture</w>
repres ent
rec or
re g
re chen</w>
re ads</w>
prü ft</w>
n .</w>
man a
le eren</w>
korre kt</w>
j o
in her
in es</w>
in e
gu lar</w>
grupp en</w>
gen an
ge sendet</w>
g ilt</w>
function ality</w>
fession al</w>
f ts</w>
expor tierten</w>
erforder lichen</w>
end gül
descri be</w>
de selected</w>
co unt</w>
bre chen</w>
ati v</w>
app lying</w>
alt ung</w>
aller y</w>
a -
Twe ens</w>
Transparen z
Tex tobj
Ta b</w>
Steuer elemente</w>
St ructure</w>
St e
Sk ins</w>
Proble me</w>
Pre ser
Pa ge
PDF- Portfolio</w>
Ma ß
L as
Konver tieren</w>
Je des</w>
In di
Hist ory</w>
Farb wäh
Ex tra
Ex p
Entfer nen</w>
E PS
Di gital</w>
Contain er</w>
Comm un
C I
C -
Bereich en</w>
Aufgab en
Ad resse</w>
Ab messungen</w>
6 0</w>
än e</w>
z ahlen</w>
vor defin
ver b
u n</w>
tutori als</w>
t ant</w>
stil l</w>
sp ect</w>
sour cen</w>
sig ner</w>
sicht baren</w>
si des</w>
sh es</w>
se h
sc ene</w>
s hi
re siz
pro t
prev ent</w>
p layer</w>
ne te</w>
me sh</w>
lin e-
le ere</w>
l l</w>
inter s</w>
ig n</w>
i ti
ho ben</w>
hilf reich</w>
hea der</w>
h eren</w>
gemeins amen</w>
gem ein
gel ten</w>
ge f
ful l</w>
f lows</w>
entsprech end</w>
disab led</w>
d rop</w>
col la
cli pping</w>
beg in</w>
be hält</w>
au schen</w>
any where</w>
and box</w>
aktu ell</w>
a u</w>
U hr
Tech ni
Sz ene</w>
St atus
St art
Si cht
Sch n
SV G</w>
R el
R T
Print J
Pr in
Pfei l
PDF- Dokumente</w>
Open Type</w>
M P
Li st
Les eri
Komponent en-
JPE G
Instanz namen</w>
Hellig keit</w>
HTML- Datei</w>
G ree
Flä chen</w>
F in
En able</w>
Direc t</w>
Comm ands</w>
Bildschirmlese program
B y
Author ing-
Arbeits ab
Ar tik
App ear
An passen</w>
Alterna tively</w>
Alterna tiv</w>
3 2</w>
ö gen</w>
zun ehmen</w>
work space</w>
web sites</w>
w är
vari ous</w>
un it</w>
un gen
tra ce</w>
su c
sten ten</w>
star tet</w>
st ream
simp ly</w>
selec ts</w>
sel be</w>
ro ot</w>
restri c
repres ent</w>
regi stration</w>
re places</w>
re f</w>
publi shing</w>
preser ve</w>
para graphs</w>
p en</w>
oper ator</w>
oper ating</w>
numeri c</w>
ne h
n ull</w>
mu ster</w>
mu ch</w>
lie gt</w>
li es</w>
li er</w>
k or
in ks</w>
impor tant</w>
h yp
genscha ft</w>
frü heren</w>
follo w</w>
f äl
f li
f ang
exten sion</w>
ent ral</w>
ek tive</w>
eingebett et</w>
einbe tten</w>
easi er</w>
dep th</w>
cro ll
cir cle</w>
auf zu
and elt</w>
aly si
actu al</w>
acces sibility</w>
ab ility</w>
Zeichen sti
Ver zerr
Text ur</w>
T it
Standard -
Slic e-
S croll
Ra dio
N amespace</w>
M aus</w>
L ab
K er
H eight</w>
Free Hand</w>
Foto s</w>
Fir st</w>
Entwur f
El lip
Ein stell
E S</w>
Dreh ung</w>
Defin ieren</w>
Cust om
Beschnei d
B in
Auswahl werkzeug</w>
Au ft
Anti- Ali
Alph akan
9 0</w>
9 -
4 -
zurück zu
zu lässi
vi deo
verwende ten</w>
uri t
ur ther</w>
tti gung</w>
trie b
ther wise</w>
tern al
spä ter</w>
soli d</w>
s on</w>
ru ft</w>
ren ame</w>
reco gni
pri v
p ol
o id</w>
nutz en</w>
nor mal</w>
net work</w>
nee ds</w>
min ist
m eiden</w>
loc ated</w>
lo cal
le -
korre ktur</w>
je derzeit</w>
ignor iert</w>
h ard</w>
grund le
gre en</w>
gra dients</w>
gelad enen</w>
ge trenn
ful l-
format en</w>
for t</w>
er ic
en sure</w>
edi ted</w>
ear lier</w>
e Cy
eCy cle</w>
documen tation</w>
do m
di vi
de gre
cor ding</w>
conver ts</w>
com e</w>
clic ks</w>
c aus
br aries</w>
bo ards</w>
be deutet</w>
be arbeitungs
auf heben</w>
anima tions</w>
ange passt</w>
al lgem
ac cording</w>
ab zu
Zeichen flächen</w>
Wör terbuch</w>
Wieder hol
W ord
Vollton farbe</w>
Ver fahren</w>
V ali
Unter menü</w>
Uni code</w>
Stru ktur
St ory</w>
So ck
Sh ar
Re place</w>
Program m</w>
Per sp
Or gan
No tes</w>
Matri x
Man agement</w>
Ma p</w>
Liv eCycle</w>
Li ch
L umin
Je der</w>
In fo
In -
HT T
Ex ternal
Ereig nisse</w>
Debu gger</w>
Chan ges</w>
C lear</w>
Bo ok</w>
Bere chtig
Bedienfel der</w>
Be schleun
1 5</w>
ä ts
zei len</w>
w indi
windi gkeit</w>
veröffent licht</w>
verw al
ver t</w>
up load</w>
ton al</w>
th ir
t om
syn tax</w>
stri ch</w>
stra in</w>
steu ert</w>
st ent</w>
sp ie
sicher zustellen</w>
sel e
s eiten
redu ziert</w>
plat te</w>
persp ective</w>
pa sted</w>
overla p</w>
out line</w>
orien tation</w>
num mer</w>
ne w
manu ell</w>
ma cht</w>
lüs sel</w>
lä tt
lo wer
lo s</w>
li z
ler dings</w>
l ers</w>
k lassen</w>
instruc tions</w>
in gen</w>
il e
ier ter</w>
h end</w>
gram m</w>
grafi ken</w>
gesch ütz
gen au</w>
for men</w>
fl ex
figu ra
f ps</w>
er scheinen</w>
environ ment</w>
entsp rechen</w>
ent -
e- mail</w>
di g</w>
di eren</w>
deta il</w>
de bu
conver ting</w>
c ri
brow se</w>
brigh tness</w>
bil dung</w>
be ein
b ögen</w>
ar ily</w>
an statt</w>
an i
an gular</w>
altern ate</w>
ab stand</w>
Zust än
Zertifik at</w>
Window s-
War n
W äh
Ver zeichnis</w>
U ser</w>
Tabulator taste</w>
Ta g-
T oler
Str g</w>
Standard wert</w>
Shi f
S enden</w>
Play er-
Platzhal ter</w>
PS D</w>
Or der</w>
O f</w>
M P</w>
Lo cal
Lei stung</w>
L ern
Kan äle</w>
K amera</w>
Interak tion</w>
In iti
Fon t</w>
F- Datei</w>
F al
Ent wick
Edi ting</w>
Curr ent</w>
Cue- Points</w>
Col or
B la
Aus sehen</w>
Ar row</w>
Applic ation</w>
Appear ance</w>
Anker punkte</w>
Al lerdings</w>
A I</w>
3 -
' ll</w>
zugehöri gen</w>
us ually</w>
unter geordneten</w>
un de
trieb ss
tra gen</w>
ton es</w>
the ken</w>
ta ges</w>
st ärke</w>
speich ert</w>
sign ed</w>
shado w</w>
separ ations</w>
sch altflä
rol le</w>
regulä ren</w>
recht eck
recei ve</w>
qu elle</w>
posi tion
plu s</w>
pat terns</w>
oper ation</w>
oc cu
no ise</w>
n falls</w>
mod ell</w>
mo te</w>
mask ed</w>
ma sch
letz te</w>
l one</w>
klas se</w>
k eits
identi fy</w>
i ch
high light</w>
h an
geöff neten</w>
gefü llt</w>
fau l
f är
f urther</w>
f lo
f ließ
excep t</w>
e ver</w>
e sten</w>
di stor
di ag
desk top</w>
depen ds</w>
dec lar
de ut
dar unter</w>
d pi</w>
cro p</w>
conn ections</w>
cal ls</w>
bre ak
br eite</w>
bitma ps</w>
beginn t</w>
bec ome</w>
be zie
auf rufen</w>
atu ration</w>
ator en</w>
at temp
ak tiv</w>
ac cep
W ie</w>
Vollbild modus</w>
Video datei</w>
Ver wendet</w>
Ton wert
T est</w>
Sä ttigung</w>
St re
Spal ten
So ftware</w>
Shif t-click</w>
Sec urity</w>
Righ ts</w>
R an
Quick Book
Progre ss
Posi tionieren</w>
Movie Clip</w>
Län ge</w>
Kont rast</w>
K ach
JPE G-
J e</w>
Instal lation</w>
In k</w>
H ome
Füll methode</w>
For ms</w>
File Referen
Farbwäh ler</w>
Ex cel</w>
Einstell ungse
Dateit yp</w>
Comp o
Comp il
Chan nel</w>
Ch eck
Cap tion
Be triebss
An fang
Allgem ein</w>
Activ e
3 2
2 .0-
.ht ml</w>
ück sichti
übereins tim
z ess</w>
vollständi ge</w>
unterschied lichen</w>
u pper-
st ern</w>
sp o
si mul
shar p
s timm
requir es</w>
rel ativ</w>
rea k</w>
produ ces</w>
previ ously</w>
pre ci
pre ce
op ening</w>
op ened</w>
oc curr
ni mm
nimm t</w>
mä ß</w>
mov e
men ü
matri x</w>
mana ged</w>
m ix
lie gen</w>
la g
k einen</w>
k ation</w>
it self</w>
ip ul
inter active</w>
instan zen</w>
inst all</w>
impor tierte</w>
i te</w>
gr und</w>
ger ät</w>
ger ä
ge mäß</w>
exter ne</w>
eric Ste
equ ival
e ffi
der selben</w>
depen dent</w>
compati ble</w>
code -
c lear</w>
blo ck
be ziehen</w>
ati bili
anim ated</w>
an gibt</w>
al t</w>
addre sses</w>
Zeichen bedienfeld</w>
Wir d</w>
W el
Veröffent lichen</w>
T ru
T O
Sti ch
Se tzen</w>
Se qu
S po
S li
Richt linien</w>
RI P</w>
Qu elle</w>
Prüf ung</w>
Prozent satz</w>
P ri
Objec t-
O ff
Num ericSte
N ehmen</w>
Me dien
Me as
Lin e</w>
Ker ning</w>
Inst ead</w>
In put</w>
HD R</w>
F unc
F ac
Expor t
Druck bögen</w>
De p
D a
Cre ative</w>
C S</w>
Aus gang
Anzei gel
Aktu alisi
- based</w>
- Funktion</w>
zusammen gesetz
zu lassen</w>
zeich en
vertrau ens
vertrauens wür
verring ern</w>
ver klein
tur ned</w>
tri tt</w>
transforma tion</w>
tool box</w>
sur face</w>
sti le</w>
star ts</w>
spe ed</w>
sieh t</w>
sicht s
se hr</w>
schri tt
s nipp
s ent</w>
render ing</w>
re moved</w>
re commen
r elease</w>
r aum</w>
preser ves</w>
pr inters</w>
play s</w>
out lines</w>
o thers</w>
no ti
mod i</w>
mer ge</w>
man age</w>
lie genden</w>
le tter</w>
konfiguri eren</w>
horizont ally</w>
ger ing
gefü hr
fer red</w>
fel dern</w>
f ör
f .</w>
enz en</w>
en es</w>
ek ts</w>
dynami sch</w>
duplic ate</w>
dupli zieren</w>
dre ht</w>
doku ment</w>
do ing</w>
diag on
der e</w>
correc tly</w>
contain ed</w>
conn ected</w>
comp ound</w>
ch ing</w>
bu chstaben</w>
benö tigen</w>
be si
be schrieben</w>
be enden</w>
bal d</w>
automati sche</w>
ar m
ak zep
ad van
ac r</w>
Zu griff
Z ahlen</w>
Wei ter</w>
W A
Verbind ungen</w>
V -
U ses</w>
U p-
Th ere</w>
Tastaturbefeh l</w>
Su pp
Son der
Seiten zahl</w>
Seg men
Re gler</w>
Pro fessional</w>
Pfei l</w>
Orig inal</w>
Noti z</w>
Nor mal</w>
Mini atur</w>
Mi thilfe</w>
Kap it
K amer
Import optionen</w>
Gr öß
Ge sch
Ge gen
F D
External Inter
Erweiter te</w>
Ein träge</w>
Dup lic
De sign</w>
Datent yp</w>
D om
Code beisp
Ch eck</w>
Bild datei</w>
Bewe gung</w>
Ber ech
Auto -
Arra y-
Al so</w>
25 5</w>
0 ,
- Objekts</w>
wo durch</w>
wh o</w>
werkzeu ge</w>
vor lagen</w>
vor gaben</w>
visu al</w>
verschachtel te</w>
vergröß ern</w>
ver l
val id</w>
under lying</w>
un less</w>
um benennen</w>
ul l
typ ing</w>
tran sition</w>
tor en</w>
symbol e</w>
sol e</w>
ser ver-
schni tts</w>
scal ed</w>
ru le</w>
richti gen</w>
resul tier
rect angular</w>
prüf ung</w>
programm ing</w>
pref light</w>
pre ference</w>
plu g-
permis sions</w>
p in
p i
overla pping</w>
number ing</w>
no tes</w>
nie dri
mer ged</w>
manu ally</w>
man ipul
ligh ter</w>
kombin ieren</w>
kan nt</w>
k ung</w>
jewei ligen</w>
imple men
i hren</w>
ho to</w>
high -
h ar
gre ater</w>
gener ates</w>
gen t
füll ung</w>
ext ra
er fordert</w>
ein stellen</w>
ein richten</w>
eas y</w>
dis k</w>
descri bes</w>
dar ker</w>
cur ves</w>
contin u
con figure</w>
compo site</w>
comp li
commun ic
combin e</w>
categor ies</w>
bil dern</w>
be tten</w>
be hin
au to
ar gu
angege bene</w>
an z
ac c
Wieder gabe
Verknüpf ungen
Ver arbeitung</w>
V al
Unter stütz
UR L-
Touch Up</w>
Text werkzeug</w>
Star ten</w>
St ärke</w>
St eu
Skal ieren</w>
Shi ft-
Res sourcen</w>
Programm ier
PrintJ ob
Portfoli os</w>
P P
Optim ieren</w>
Nach -
Multi ple</w>
Mod ells</w>
Me hr
Mat eri
Lo ader</w>
Leer zeichen</w>
Kl ein
Hi gh
Farbver lauf</w>
Er setzen</w>
En try</w>
Dup li
Do main</w>
C ue</w>
C amera</w>
C a
Bu ch</w>
Be vor</w>
B lu
App lies</w>
Ab spiel
3 0</w>
1 .0</w>
öff net</w>
Überprüf er</w>
wer fen</w>
w inkel</w>
vor zu
ver teilen</w>
ver suchen</w>
us zeichen</w>
updat es</w>
un its</w>
um gew
umgew andelt</w>
tra pping</w>
ti e
throu gh
through out</w>
ta kes</w>
suc ces
stu fe</w>
so fern</w>
si tions</w>
sec tions</w>
s -</w>
rück gängig</w>
ri ere
por tion</w>
no t
mobil e</w>
mas ken</w>
mar y</w>
magni fication</w>
la b
kol l</w>
k te</w>
k rü
horizont ale</w>
hil fen</w>
hand ling</w>
gro ßen</w>
gi ven</w>
genan nt</w>
funk tionen</w>
funk tion</w>
ff en</w>
er kenn
er ate</w>
en- Werkzeug</w>
en gth</w>
en ds</w>
eff ekte</w>
e t-
e .
durch führen</w>
disp at
design ed</w>
dele ted</w>
d ungen</w>
conta ct</w>
con s</w>
coll ection</w>
calcu l
book mark</w>
beson dere</w>
beschrän ken</w>
auth or</w>
ausgeblen de
auf lösung</w>
ard less</w>
an wend
am es</w>
ali asing</w>
al er</w>
ab ili
Web -
W as
Un der</w>
Transparen cy</w>
Text datei</w>
Tei len</w>
Syst em
Stri ch</w>
St ate</w>
Spra ch
Ser ver
R ul
Po lic
Par ame
Pa ths</w>
Option -click</w>
O hne</w>
Moviecli p-
Mo st</w>
Ma xim
Krei s</w>
Inhal ts</w>
Hand ler</w>
Gerä te</w>
G es
Fol ge</w>
Fest platte</w>
FT P-
F F
ExternalInter fac
Exp and</w>
Druck farb
Dokumen tation</w>
De vice</w>
D u
Col um
Boole an</w>
Benutzer ober
Ben der</w>
Be zug</w>
AutoCA D</w>
Auft ra
An lage</w>
An forder
Allgem einen</w>
Ad re
Ab sätze</w>
A V
.ht m</w>
über schreiben</w>
über prüft</w>
ähn lich</w>
Über drucken</w>
zu erst</w>
zeich nis
z ierung</w>
x ml</w>
vor überge
vor einge
vertik ale</w>
ver weisen</w>
ver arbeitet</w>
tri es</w>
tre ten</w>
ter t</w>
t ree</w>
t one</w>
st euer
si an</w>
ser ies</w>
sec on
schein t</w>
ro un
redu ces</w>
re mains</w>
re main</w>
re ferences</w>
rati o</w>
radi us</w>
promp ted</w>
plac ing</w>
pha be
p ose</w>
op tional</w>
nolo g
no w</w>
nega tive</w>
mon itor</w>
minist ra
mem ber</w>
lö sen</w>
look s</w>
loc ations</w>
ligh ting</w>
lei ch</w>
lear ning</w>
lab els</w>
k ür
inter pre
inter n
im medi
i cons</w>
h ilfe</w>
h ell
getrenn t</w>
gener al</w>
ge wi
ge ta
ge schrieben</w>
g allery</w>
fa de</w>
ent wick
en cy</w>
einbe zogen</w>
eich t</w>
eich e</w>
edi ts</w>
eben falls</w>
dra w
de s
de mon
d eck
cross- reference</w>
c ts</w>
bu ch
bewe gen</w>
basier end</w>
b ra
b one</w>
auf nehmen</w>
art boards</w>
andar ds</w>
an zeige</w>
an ti-
allow ed</w>
ah er</w>
a tion
Z ellen
U sers</w>
Typ e-
Text Fiel
T ri
Standard einstellungen</w>
Sp e
Sonder zeichen</w>
So ur
Sk ele
Rot ate</w>
Rec t
Re pe
Re g
Punk ten</w>
Pas s
Optim ize</w>
Optim ierung</w>
Mod ell
Mer ge</w>
Maß ein
Mar ken</w>
Le vel</w>
La bel</w>
Korrektur en</w>
Konstruk tor</w>
Illustrator -
Grund lage</w>
Glyp hen</w>
Gen eh
G lob
Flä chen
F lu
Einz el
Eff ects</w>
E yedropper</w>
Druck farbe</w>
Dre hen</w>
Conn ection</w>
Com bo
Book marks</w>
Bildschir ms</w>
B it</w>
B ack
Aus gewähl
Arb eit
An gleich
Alig n</w>
Ab bildung</w>
zwei ten</w>
zwei te</w>
zusammen führen</w>
wri tten</w>
weiter hin</w>
w on</w>
vorheri gen</w>
vor gang</w>
viel en</w>
vi si
verb unden</w>
ver sehen</w>
v ary</w>
up s</w>
track ing</w>
tra p</w>
te te</w>
sor tieren</w>
se i</w>
scal e
s st</w>
ru f</w>
ron t</w>
recht eck</w>
re as
r t</w>
r o</w>
qu es</w>
preser ved</w>
play ing</w>
organ ize</w>
ord nung</w>
ober halb</w>
ni ssen</w>
n ern</w>
mel dung</w>
li braries</w>
le vels</w>
l ong</w>
it ed</w>
interak tive</w>
in vol
illu stration</w>
ie h
ic s</w>
i fy</w>
hi gh</w>
her um</w>
glob ale</w>
gemeins am</w>
gefü ll
gef unden</w>
g ers</w>
fül lt</w>
format ted</w>
forma tieren</w>
flex i
flash cs4</w>
ext end</w>
el li
el ler</w>
ek t
einzel n</w>
einge stellt</w>
ein mal</w>
dynami schen</w>
di tional</w>
da bei</w>
cop ies</w>
condi tions</w>
comp u
combin ed</w>
combin ation</w>
col ored</w>
cho i
benach bar
bed ing
be tter</w>
auß er</w>
ar mat
ar ly</w>
aler ie</w>
al ized</w>
al ign</w>
Werkzeu gen</w>
Was ser
W h
Verknüpf ungs
Vari ables</w>
Typ e
T est
Skrip ts</w>
Separa tionen</w>
Sec urit
Se par
Schri ften</w>
Schließ en</w>
Sch atten</w>
Re ading</w>
Pro por
Polyg on</w>
Pixel -
PNG -Datei</w>
Out look</w>
Objec t
Navig ation</w>
Nach richt</w>
L DA
Kon stan
Komp atibili
Kombin ation</w>
K or
J apan
In t
I K</w>
Geneh m
G RE
Farb gruppe</w>
Expor ts</w>
Erweiter ung</w>
Emp fän
Duplic ate</w>
De sign
Dat um</w>
Dat e</w>
D ri
Comple te</w>
Com ment</w>
CS S</w>
Bu chstaben</w>
Bild daten</w>
Begrenzungs rahmens</w>
Be arbeit
Aufzähl ungszeichen</w>
Adj ust</w>
AS CI
2 0</w>
. j
Über gang
zw ar</w>
zer o</w>
ver ändern</w>
ver halten</w>
velop e</w>
untersch eiden</w>
ungsp unkt</w>
tr ennen</w>
tier ungen</w>
ti le</w>
the mati
ter en</w>
techni ques</w>
ta tions</w>
stri chen</w>
sti cs</w>
state ments</w>
stac k</w>
speich er</w>
sp reads</w>
sp lit</w>
shado ws</w>
ser ver
selec tions</w>
schrän kungen</w>
sch ar
run ning</w>
roll ing</w>
resp ond</w>
reg ardless</w>
re use</w>
par enth
p t</w>
p olyg
occu r</w>
ober sten</w>
number ed</w>
no ten</w>
modifi ed</w>
mod els</w>
ma ps</w>
lok ale</w>
local -
lo ver</w>
li mit</w>
li mit
le ading</w>
la tions</w>
key words</w>
k re
in visible</w>
immedi ately</w>
i r</w>
i de
hi er</w>
her vorge
glyp hs</w>
glyp h</w>
för mi
ft- Werkzeug</w>
exp lic
ex ist</w>
er scheint</w>
er kennen</w>
enc ryp
ell ing</w>
ein deu
ei det</w>
dimen sion
dest o</w>
den n</w>
de m
dar y</w>
d as
cop yright</w>
coordin ates</w>
con figuration</w>
con f
compil er</w>
cal ling</w>
c ach
ble ed</w>
bie ten</w>
bezie ht</w>
ber eit</w>
ben e
basi ert</w>
b atch</w>
av oid</w>
auf weisen</w>
ab solu
Work flow</w>
Wiederhol en</w>
Werkzeu gs</w>
Wen det</w>
Um gebung</w>
Texte bene</w>
Templ ate</w>
Sub tra
Sti l
Schnitt stelle</w>
Sam ples</w>
Sam m
S nap</w>
Ri ght</w>
Re qu
Publi shing</w>
Pro fil
Po in
PIC T</w>
Open Type-
On line-
Netzwer k
N one</w>
Möglich keiten</w>
Mark ierung</w>
Le ar
Kur ven</w>
Konver tiert</w>
Java Script-
Informa tion</w>
Gr und</w>
For t
Flu cht
Farb modus</w>
F lex
F -</w>
Ergeb nis</w>
Ent wür
Docu ments</w>
Disp at
D ynami
C entral</w>
B au
Ar t
Ac cess</w>
Ab out</w>
A N
9 9</w>
4 5</w>
ä tigen</w>
ä re</w>
z im
z ertifi
z entri
z ahl
x -
wra p</w>
wei ght</w>
war ning</w>
vorüberge hend</w>
ver meiden</w>
ver age</w>
v ok
un verändert</w>
trä gen</w>
tei le</w>
techni que</w>
syst ems</w>
st o
st lei
son dern</w>
seg mente</w>
se s
respon se</w>
represent ing</w>
ref er</w>
re port</w>
re gler</w>
punk ten</w>
progre ss</w>
po ses</w>
plu g</w>
p se</w>
orig in
ord net</w>
optim ieren</w>
op a
mi ssing</w>
me ssen</w>
lo ss
lie gende</w>
letz t</w>
lei sten
lang ref</w>
la ger
la gen
intensi ty</w>
in ver
in gt</w>
impro ve</w>
i g</w>
i er</w>
highligh ts</w>
hal ten
h and</w>
gän gi
gg f.</w>
geschlo ss
geord net</w>
ge gen
g rü
g low</w>
g leich</w>
g ins</w>
funk tionieren</w>
full- screen</w>
foo t
f er</w>
exam ples</w>
enter ed</w>
eingebette ten</w>
einge geben</w>
ei genschaft</w>
dynami cally</w>
di ff
defini tionen</w>
dat en
dar stellung</w>
con strain</w>
co des</w>
blen det</w>
bild schir
bereit stellen</w>
basi eren</w>
auf lö
at s</w>
as 2
armat ure</w>
ar ches</w>
ac cur
a spect</w>
Zustän de</w>
Z i
Wen den</w>
Vi si
Ver weis</w>
Touch Up-
Text ur
T r
Syn chron
Sta ti
Sta p
Sta ge
St attdessen</w>
Spri te-
Sicherheits einstellungen</w>
Sh ortcu
Sel ecting</w>
Seitenver hältnis</w>
Referenzhand buch</w>
R elease</w>
PN G-
O b
Navigations fenster</w>
N ame
Mini aturen</w>
Lo ck</w>
Line al
Konvertierungs einstellungen</w>
Kont rolle</w>
Ke ep</w>
In tensi
In te
Ho t
H e
Grund linien
Gri ff</w>
Gra d</w>
Gegen satz</w>
Func tion</w>
Fal ls</w>
F ensters</w>
Dreamwea ver-
Di s
Conver ts</w>
Conver sion</w>
Co des</w>
Clip board</w>
Can vas</w>
C O
Blogein träge</w>
Beschrift ungen</w>
Berechtig ungen</w>
Beispiel e</w>
Be hält</w>
B atch</w>
Ausgang s
Auf rufen</w>
Au tor</w>
Ander nfalls</w>
25 6</w>
1 2</w>
überlapp en</w>
über geordnete</w>
zulässi g</w>
z ierten</w>
z ier
y el
yel low</w>
y e</w>
wäh lt</w>
whe el</w>
veran ker
tru sted</w>
tempor arily</w>
tab s</w>
t yp</w>
succes s
su per
stän den</w>
stre am</w>
stlei ster</w>
sti tu
st är
spra che</w>
spi tze</w>
sk ins</w>
sign atures</w>
si mu
si c</w>
sen si
schrän ken</w>
s nap</w>
s ke
rop h
righ t-
ra t</w>
r ele
r a</w>
pro xy</w>
pass ungen</w>
p ass</w>
mitt l
ministra tive</w>
minim um</w>
me ter</w>
ma themati
ma s</w>
m ern</w>
lo y
lo s
limit ed</w>
li sten</w>
le a
lauf en</w>
la bel
komp onen
kom m
kan ten</w>
ignor ed</w>
i ste</w>
i cally</w>
hyper link</w>
gui del
guidel ines</w>
gu ages</w>
group ed</w>
gro ß</w>
gewünsch t</w>
gewäh lt</w>
gel esen</w>
g le</w>
fre i</w>
fra me
fix ed</w>
ff ekt</w>
expres sions</w>
excep tion</w>
ex act</w>
erweiter t</w>
ent ed</w>
en det</w>
em pel
em e</w>
do t</w>
di gen</w>
di agram
d t</w>
cur ved</w>
cu t</w>
coordin ate</w>
compre ssed</w>
cli p
caus es</w>
bu l
bereit gestellt</w>
ber s</w>
beg ins</w>
b y-
attach ment</w>
ar ten</w>
anti- aliasing</w>
ange zei
an hängen</w>
alterna tiven</w>
al phabe
al gorith
adj ac
adjac ent</w>
a i</w>
a de
Z ur
V ektor</w>
Unterstütz ung</w>
U r
Transform ieren</w>
Tim er</w>
T esten</w>
Su ite</w>
Skrip tfenster</w>
Sicherh eit</w>
Sett ing</w>
Schrei b
S il
S ho
Repe at</w>
Recht eck
Quick Ti
Prozess farben</w>
Proj ect</w>
Pro ces
Prin ter</w>
Polyg on
Platzhal ter
Pipe tt
Pfa des</w>
Pfa den</w>
Pap ier</w>
Option -
Neu er</w>
Multi media</w>
Ma ster
Leseri chtung</w>
Lern interak
IM E</w>
I tem</w>
Hand buch</w>
H ier
Glyp hen
Ges am
Format en</w>
Fol der</w>
Farb palette</w>
F ull</w>
Ereignis- Listener</w>
Dra wing</w>
Down load</w>
Defini tion</w>
De signer</w>
Data Grid</w>
D en
Cur sor</w>
Clas s</w>
C ro
C lock</w>
C ir
C enter</w>
C ategor
Butt on-
Blu r</w>
Blog -
Bibliothek sele
Benutzerdefin iert</w>
Benutz ers</w>
Be stimm
B ones</w>
Aus richten</w>
Arbeitsab lauf</w>
Anti-Ali asing</w>
An ch
Al though</w>
A t
2 6
Über druck
zusätz lichen</w>
zu führen</w>
zo om
wür de</w>
wel cher</w>
vor gabe</w>
vi sibility</w>
verhin dert</w>
ver lu
unter geordnete</w>
ungspro zess</w>
umge ke
um wandeln</w>
tur ns</w>
tu ation</w>
to String</w>
ti g
tei genschaften</w>
t rei
t an
sätz en</w>
stati sche</w>
sicht bare</w>
separ ation</w>
se hen
sch är
sav ing</w>
s- Bedienfeld</w>
riere frei
revie wers</w>
ren der</w>
recommen ded</w>
rech te</w>
re feren
prä sen
pro por
prin ts</w>
pla n</w>
parti ci
ou ts</w>
organ isieren</w>
oper ations</w>
mp 3</w>
mitt eln</w>
mini atur</w>
measure ments</w>
m m</w>
logi cal</w>
line ar</w>
lin ke</w>
le t
l r</w>
l back</w>
kl einer</w>
kl eine</w>
key word</w>
ke tt
j um
iz es</w>
intern al</w>
inter act</w>
instal lieren</w>
inhal te</w>
i k
i hr</w>
hervorge hoben</w>
herunter geladen</w>
hel ps</w>
gespeich erten</w>
gemein same</w>
ge startet</w>
for dern</w>
fol gr
flatten ed</w>
fl us
fini shed</w>
feh len
f ront</w>
ev ent
er kannt</w>
er hält</w>
equ al</w>
ein schließen</w>
e ds</w>
dri ve</w>
disp la
determin ed</w>
defini tions</w>
dar an</w>
d y</w>
cro ss</w>
con ven
check ed</w>
chec ks</w>
chec king</w>
charac teri
c ause</w>
ben trenn
behavi ors</w>
be wirkt</w>
bac ks</w>
auf treten</w>
and -click</w>
al ten
al one</w>
aff ected</w>
abhän gi
Zeichen format</w>
Z w
Wor king</w>
Wh ile</w>
Verschie bt</w>
Umsch alt</w>
UT F-
U I
Typ s</w>
Th ema</w>
Textobj ekt</w>
Text -</w>
Symbol en</w>
St empel</w>
Sign atur
Sicht barkeit</w>
Shift- drag</w>
S per
S end</w>
Rol len</w>
Richtlinien datei</w>
Rect angle</w>
Quad rat</w>
PrintJob .
Persp ektive</w>
PP D</w>
Ob wohl</w>
M any</w>
M alen</w>
M O
Layout ansicht</w>
Korrektur bedienfeld</w>
Kopf -</w>
Kon ta
Komponenten inspektor</w>
K eine</w>
JD F</w>
Inter ne
Iden tifi
Hal b
Grund linie</w>
Flucht punkt</w>
FileReferen ce
FLVPlayback Caption
F lat
Expor tiert</w>
Erweiter n</w>
E cken</w>
Druck auf
Di st
Dep ending</w>
D T
D CS</w>
Cro ss-
Cor rec
Connec tion
CS 3</w>
C rop</w>
Blo ck
Bild lauf
Bil ds</w>
Automati sch</w>
Auftra gs
Assi stenten</w>
Arra ys</w>
Ar gu
Al t-</w>
Al arm
Adre ssen</w>
2 000</w>
Überfüll ung</w>
zu geordnet</w>
z ard</w>
y ond</w>
x y-
x -</w>
wri ting</w>
with -
wichti g</w>
wi zard</w>
vie l</w>
versch lüssel
ver zerr
ver folgen</w>
untersch eidet</w>
ungs -</w>
und aries</w>
u red</w>
transforma tions</w>
top ic</w>
to o</w>
tion sk
tei l</w>
stri ch
ss ym
ss er</w>
si ty</w>
scan ner</w>
s um
s na
run time</w>
rec ip
re d
qu ad
publi c</w>
prot ected</w>
program s</w>
posi tive</w>
plat form</w>
pass ed</w>
p op
or en</w>
optim ization</w>
on- screen</w>
ol l</w>
off ers</w>
mitt el
meas ure</w>
mark ers</w>
manipul ate</w>
m ind</w>
local- with-
lo g</w>
le ave</w>
lan guages</w>
la tion
l ern</w>
kor rig
it ly</w>
is su
in tended</w>
i schen</w>
ho se</w>
her zustellen</w>
h ard
gro ße</w>
gra tion</w>
go od</w>
gesperr t</w>
gen d</w>
gefü gte</w>
ge hen</w>
ge eig
ge benen</w>
führ ungszeichen</w>
ft one</w>
follo wed</w>
fe w</w>
f ah
exten sions</w>
ext ra</w>
expor tierte</w>
exp ected</w>
es es</w>
er folgr
endgül tige</w>
en ables</w>
ek tors</w>
ein träge</w>
ec tor
ec ken</w>
e benen</w>
e Point</w>
dist ribute</w>
descri bed</w>
deklar iert</w>
defin ing</w>
d rig
d rei
con fir
compati bility</w>
co l</w>
clip board</w>
clic ked</w>
c les</w>
br ushes</w>
bo undaries</w>
bewe gt</w>
beein flus
be yond</w>
be sser</w>
av a</w>
ations hi
ange ordnet</w>
alle y</w>
al es</w>
ak tive</w>
ad vanced</w>
activ ate</w>
a part</w>
Web server</w>
Ver hältnis</w>
Un ter</w>
Tween- Bereich</w>
The y</w>
The men</w>
T ar
Supp ort</w>
Struktur ansicht</w>
Stam m
Sound datei</w>
Sock et-
Sil bentrenn
Sign ature</w>
Sha do
Re turn</w>
Re mo
R O
Qu iz
Propor tionen</w>
Pak et
PDF- Dokumenten</w>
P at
O therwise</w>
Noti zen</w>
N icht</w>
Movie Cli
Mess ungen</w>
Matri x</w>
M ou
M ix
M el
Le ft</w>
L ar
Kopf zeile</w>
Koordin aten</w>
Kom m
Inhaltsver zeichnis</w>
Inhal t
Inclu de</w>
I P
HTML- Code</w>
Gui de</w>
Graphi cs</w>
G alley</w>
Fram erate</w>
Farb werte</w>
FLVPlayback -Komponente</w>
FLV -Dateien</w>
F en
Entwür fe</w>
Empfän ger</w>
E-Mail- Adresse</w>
Druck farben</w>
Druck fah
Druck dien
Des k
Defin e</w>
De faul
Cur ves</w>
Comm and-click</w>
Co unt</w>
Check Box</w>
CS S-
Bitmap Data
Bild qualität</w>
Bild lauf</w>
Beschneid ungspfad</w>
Beding ungen</w>
Bal ken</w>
Auf gabe</w>
As sign
Anzeigeobjek ts</w>
Animations bedienfeld</w>
An führungszeichen</w>
Al t-click</w>
Al low</w>
Acces sibility</w>
A v
3 .
2 D</w>
1 80</w>
über nehmen</w>
Über gang</w>
zu letzt</w>
zu gän
zim al
z ierungs
wor t
windo ws</w>
wieder herstellen</w>
wieder gabe</w>
web -
wat er
w ol
wol len</w>
vor zunehmen</w>
vol l</w>
verring ert</w>
vari ieren</w>
vari es</w>
vali d
ungs einstellungen</w>
tz ung</w>
tran sitions</w>
ti sch</w>
ti gu
tigu ous</w>
ti fy</w>
ter al</w>
teil ung</w>
t op-
t int</w>
st et</w>
spo ts</w>
speziel le</w>
sp rech
so cket</w>
sig ni
shi ft</w>
ses sion</w>
ser vers</w>
sequ enz</w>
secon ds</w>
scrip ting</w>
s einen</w>
s .
rel ationshi
regi ons</w>
recip i
re set</w>
qu iz</w>
pur poses</w>
proce d
proced ure</w>
p sho
over printing</w>
ober e</w>
nie drig
ni ch
mm ed</w>
menü s</w>
maxim ale</w>
materi al</w>
masch ine</w>
mark iert</w>
li cher</w>
lau tet</w>
korre ktur
komplex e</w>
ker ning</w>
kan al</w>
k tion</w>
inter actions</w>
indic ating</w>
il ed</w>
ih nen</w>
identi sch</w>
höh ere</w>
hyp hen
ho st</w>
hierarch ie</w>
hel fen</w>
h ue</w>
h ead</w>
gelad ene</w>
gel t</w>
gel ist
geführ ten</w>
ge klickt</w>
ge gen</w>
gan z</w>
fort lauf
forma tiert</w>
fo h
fi ed</w>
fen sters</w>
feh ler</w>
f ak
exam ple
erweiter ten</w>
er ation</w>
equival ent</w>
enc il</w>
en- Bedienfeld</w>
einzu geben</w>
eingebette te</w>
einfa chen</w>
ectr on
e bedienfeld</w>
do p
di ent
dem selben</w>
d ort</w>
d au
cur sor</w>
condi tion</w>
con tiguous</w>
con stant</w>
ch ro
ca st</w>
blo gs</w>
ben den</w>
befeh le</w>
be stehen</w>
bar code</w>
b ri
b ran
automati c</w>
auf gelist
as2 lr</w>
ani shing</w>
ander s</w>
adjust ing</w>
ad ministrative</w>
ac tly</w>
Zus ä
Zeichensti ft-Werkzeug</w>
Y our</w>
Y es</w>
Vordergrund farbe</w>
Viel e</w>
Ver läufe</w>
Ver halten
Vektor grafiken</w>
V anishing</w>
Up date</w>
U I</w>
Tabellen z
T ur
Syn tax</w>
Symbol instanz</w>
Sub selection</w>
Si te</w>
Securit y.
Sch är
Sch lag
S av
Re view</w>
Re ad
R aum</w>
QuickBook s</w>
Prozent wert</w>
Pl uszeichen</w>
Pix els</w>
Pas sen</w>
Pa th
PS D-
P PD
Open G
Num mer</w>
Mou se
Mo ves</w>
Mo bil
Medi en</w>
Meas ure
Man age</w>
M y</w>
Lumin anz</w>
Local Connection
Li sten</w>
Li g
Lear ning</w>
Las sen</w>
L esen</w>
Ko dierung</w>
Kamer a
Japan ese</w>
J a</w>
Gra u</w>
Gesch windigkeit</w>
G el
Fü l
Farbver lauf
F er
Ex ten
Dri tt
Di ffer
Datein ame</w>
D ann</w>
Cont in
C lose</w>
Bildmateri als</w>
Be zeichnung</w>
Auswahl rechteck</w>
Aus richt
Auf nah
Admini strator
Ab bild
8 -
4 .0</w>
2 4</w>
16 -
1. 5</w>
1 7</w>
über schrieben</w>
Überprüf ungen</w>
Öff net</w>
zu g
zie h
zei ger
z -
work flows</w>
wi der</w>
w hose</w>
vor genommen</w>
vor ange
verwende te</w>
us er-
und o</w>
un den
um fassen</w>
twe ens</w>
tutori al</w>
tri m</w>
to tal</w>
ti me
tf ensters</w>
ta ct</w>
sur faces</w>
sty p</w>
stri che</w>
stor es</w>
st ätigen</w>
st es</w>
spiel t</w>
so fort</w>
so bald</w>
sli ders</w>
signi fi
si ati
sh old</w>
ser n</w>
separ at</w>
sensi tive</w>
sec ure</w>
sch l
sc ap
s se</w>
rot ated</w>
richti ge</w>
revie ws</w>
retur ned</w>
repe at</w>
re shold</w>
re placement</w>
re placed</w>
re mote</w>
ra dio</w>
qu o
prev ents</w>
pre fix</w>
pas sung</w>
parenth eses</w>
par ty</w>
p hoto</w>
over all</w>
oper ators</w>
opa que</w>
op e</w>
nolo gi
mess ages</w>
men tieren</w>
m ale</w>
kno wn</w>
kenn zeichnet</w>
inter ag
initi al</w>
in line</w>
ieh lt</w>
höh eren</w>
hin ter</w>
h ome</w>
h eit
grupp ieren</w>
geordne tes</w>
ge o
flä chen
fin d
ffi x</w>
ff ekte</w>
fan gen</w>
f iehlt</w>
ex actly</w>
er eig
enth alten
ent steht</w>
enn amen</w>
emp fiehlt</w>
ek tr
einfa cher</w>
eigen ständi
e- Werkzeug</w>
e ye</w>
do m</w>
die selbe</w>
der -
demon str
decre ase</w>
d- party</w>
cre ation</w>
cor por
consi der
colla pse</w>
cli ent</w>
characteri stics</w>
cap ture</w>
c lear
boun dary</w>
behin d</w>
begrenz ung</w>
be handelt</w>
b ungs
b reak</w>
auß erdem</w>
auszu führen</w>
aus sehen</w>
auf weist</w>
as si
arti cle</w>
anim ierte</w>
angezei gten</w>
an bie
an alysi
aler weise</w>
al l
adjust s</w>
Zeilen abstand</w>
Z oll</w>
Wor ld</w>
Wi th
Vor teile</w>
Typ en</w>
Transforma tionen</w>
Tr enn
Tit el
Text -Werkzeug</w>
Tar get</w>
T ile
Sti ft
St u
Sour ce</w>
Smart- Objekt</w>
Skrip te</w>
Silbentrenn ung</w>
Scrip ts</w>
Scre en
Schri tten</w>
Schlüssel wörter</w>
Scan ner</w>
SV G-
S nipp
S ection</w>
S atz
Recht schreib
Re set</w>
Rah men
R än
Querver weis</w>
Pl att
Pfa de
PPD -Datei</w>
Oper atoren</w>
Offi ce-
O ut</w>
O C
Noti z
Mittel punkt</w>
Meta data</w>
Mak es</w>
M A
Lo c
Le vels</w>
L MS</w>
Kur ven
Kon figura
Komp ili
J ava</w>
Intensi tät</w>
InCopy- Benutzer</w>
In cre
ID s</w>
I N
H S
G ül
G o
Fra me-
Farb -</w>
FLV -Datei</w>
F L</w>
Extra s</w>
Ein heiten</w>
Ebenen bedienfelds</w>
E-Ma il</w>
Druckfah nen
Druckdien stleister</w>
Display Object</w>
Diagram m
Desk top</w>
De vices</w>
Datent ypen</w>
Datei formaten</w>
Data Gri
D rop</w>
Cu t</w>
Conn ect</w>
Compil er</w>
Bo x
Bla ck</w>
Bildschirmleseprogram me</w>
Bildschir me</w>
Betriebss yst
Bel i
Bel eu
B MP</w>
At ta
Anch or</w>
An twor
An sichten</w>
Ad ds</w>
A sian</w>
4 .
1 0
ücksichti gen</w>
über tragen</w>
Änder ungs
zeiger sin
zeigersin n</w>
wi de</w>
w are
vol ume</w>
verw altung</w>
verl oren</w>
ver arbeitungs
um kehren</w>
um fang</w>
ul ts</w>
tz eich
transparen ten</w>
tra cing</w>
to -
ti les</w>
thir d-party</w>
ter ing</w>
tatsäch lich</w>
t- in</w>
t ely</w>
t ec
tec o
stän de</w>
st ert</w>
st age</w>
squ ar
sp ati
sp ans</w>
snipp et</w>
simp li
sho wing</w>
sequ ences</w>
sen ds</w>
sel y</w>
schwar z</w>
schaltflä chen</w>
sch en
sav es</w>
s w
s aturation</w>
rü che</w>
ro les</w>
resultier ende</w>
restric tions</w>
resiz ing</w>
refl ect</w>
recor d</w>
re tain</w>
re produ
punk ts</w>
pu t
provi ded</w>
proj ects</w>
progre ssi
pro portions</w>
prin table</w>
pres ent</w>
po sure</w>
play ed</w>
pi ec
photo s</w>
percen tages</w>
pa ge-
p f
numeri schen</w>
nolog y</w>
men t-
mehr erer</w>
manu al</w>
liz it</w>
leich t</w>
lea st</w>
le er</w>
l are</w>
kür z
kön nten</w>
krü mm
komprim iert</w>
kombin iert</w>
inter ac
ild ren</w>
il l
identifi er</w>
identi cal</w>
ic al</w>
hierarch y</w>
he ading</w>
gleich mäßig</w>
ger en
genau e</w>
g ine</w>
g gen</w>
frequ ency</w>
frei geben</w>
fra me-
fort zu
fla chte</w>
fil m</w>
f äh
exten ds</w>
explic itly</w>
exp lizit</w>
erfolgr eich</w>
er w
er mitteln</w>
enter ing</w>
ent lich</w>
ell Render
el lip
ectron ic</w>
ec tively</w>
ea se</w>
e te</w>
dynami sche</w>
dra fts</w>
display ing</w>
displa cement</w>
declar ed</w>
d ungs
curr ent
comple tely</w>
ck -
certific ates</w>
by te</w>
buil t-in</w>
buch .</w>
bu ilt</w>
bu ild</w>
bie gen</w>
bestimm tes</w>
beschrän kt</w>
berech nen</w>
benö ti
beliebi ges</w>
be vel</w>
be steh
be schreibt</w>
aus richtung</w>
atta ched</w>
anim ate</w>
ange wende
anch ored</w>
an sichten</w>
an schließend</w>
actu ally</w>
Zusatzmodu le</w>
Z ur</w>
XM P</w>
Vorschau bereich</w>
Veröffentlich ungen</w>
Vergröß erung</w>
Ver satz</w>
V ector
Unter sch
Uni code-
Uhr zeigersinn</w>
URL Loader
Textab schnitts
TextFiel d</w>
Tex te</w>
Techni ken</w>
Tabulator en</w>
Symbol instanzen</w>
Swat ch</w>
Str ing
Steuer element</w>
Steu ern</w>
Skrip ten</w>
Sim ple
Sign aturen</w>
Sek unde</w>
Seiten zahlen</w>
Schlag sch
Sch lei
Samm lung</w>
Res ults</w>
Referenzhand buch.</w>
Radio Button</w>
Radi us</w>
Ra w</w>
QuickTi me-
Prä fix</w>
Preser ve</w>
Play back</w>
Path fin
Pass word</w>
PS -
PDF- Format</w>
P ack
Ord ners</w>
Ord ner
OpenG L</w>
Off set</w>
O ver</w>
NumericSte pper</w>
N utz
Mas ken</w>
Mac ro
M PE
Li gh
La de
Kommentar en</w>
Key board</w>
Inclu des</w>
In dic
Hellig keits
Glyp he</w>
Gerä ten</w>
Fil me</w>
Farb ton
F 4
Ergeb nis
En tf
En c
Eff ekten</w>
Eck punkt</w>
E dge</w>
Drucker trei
Display Object
Direc tory</w>
Diagram m</w>
Di as
Des kt
D aher</w>
Cop yright</w>
Cont rols</w>
C lock
C all</w>
Blog server</w>
Biblio theken</w>
Beweg ungspfad</w>
Bewe gen</w>
Ber icht</w>
Benutzerober fläche</w>
Aus schneiden</w>
Anzeigel iste</w>
Ani m
An sichts
An gle</w>
Alphakan al</w>
Admini ster</w>
Absatz format</w>
Absatz es</w>
ASCI I</w>
A -
2 D-
. in
. get
. ..</w>
- Optionen</w>
- Einstellungen</w>
Über prüfen</w>
zurück setzen</w>
zur ufen</w>
zeit leiste</w>
zei len
z ierte</w>
wi d
wand elt</w>
vorheri ge</w>
vordefin ierte</w>
vi sion</w>
ver kett
us -
unk te</w>
uni kation</w>
ungs optionen</w>
unde bene</w>
unc tuation</w>
un be
tu ri
tri gger</w>
transparen te</w>
tra gs</w>
th ält</w>
th row
teil weise</w>
tar ge
ta dre
sur es</w>
sub sequ
su l
struk turi
stor ies</w>
stop s</w>
star k</w>
spezifi schen</w>
sk on
sign ing</w>
si ve</w>
separ ated</w>
se arch
sch alter</w>
sa fe</w>
s can</w>
s andbox</w>
rä g
ru f
ri ter
restri ct</w>
regi stri
regi on</w>
re main
re ali
raster ized</w>
pro fil</w>
pre ssing</w>
pre defined</w>
pin sel</w>
p ing</w>
over print</w>
or i
ome try</w>
not wen
neh mer</w>
mix ed</w>
min dest
mindest ens</w>
mat ching</w>
mark ierung</w>
mark ierten</w>
mar gin</w>
m c</w>
m al
lö st</w>
lä tten</w>
low -
listen ers</w>
list ings</w>
li ve</w>
li sting</w>
li ge</w>
li ches</w>
le g
l än
kompati bel</w>
ko di
kno w</w>
k oll
k in
k al
je tzt</w>
j us
integri erten</w>
insp ektors</w>
inser ted</w>
ing le-
in ten
ilfs linien</w>
ig h</w>
i sche</w>
he ad
grundle gende</w>
griff e</w>
ger aden</w>
genom men
ge ometri
ge macht</w>
ge folgt</w>
g ar</w>
g am
fini sh</w>
fa ster</w>
ex ak
et was</w>
est ab
estab li
er leich
er fordern</w>
ent yp</w>
en velope</w>
en -</w>
emp foh
el -
ein heit
durch zuführen</w>
dunk ler</w>
drück e</w>
dri ver</w>
differ ence</w>
degre e</w>
defin ierten</w>
d ro
cor ners</w>
commun it
clo sure</w>
ch ose</w>
c y
b lau
ausgeblende ten</w>
aus gabe</w>
aufgelist et</w>
auf genommen</w>
at ter</w>
ar r
ar c</w>
anwend ungen</w>
ang ing</w>
an hand</w>
ach ie
accep t</w>
a xes</w>
Zeit st
Zeichen -</w>
Z ähl
Vor lagen
Verbindungs informationen</w>
Un der
U N
Transform ier
Textab schnitte</w>
Symbol -
Stre am</w>
Sti ls</w>
Stap el</w>
Sho ws</w>
Sequ enz</w>
Schwar zwei
Sch lüssel</w>
S andbox</w>
Raster weite</w>
Ran ge</w>
R un</w>
R A
Qu iz</w>
Publi sh
Provi der</w>
Posi tion
Pixel ma
Pinsel s</w>
Par ameters</w>
Page Maker</w>
Out line</w>
Option- drag</w>
Op ens</w>
O ne</w>
Navig ate</w>
Muster vorlage</w>
Mic roph
Mess ung</w>
Men u</w>
Mel dung</w>
Lo cal</w>
Line al</w>
Lei ste</w>
Kor e
Kop ier
Komm unikation</w>
Kan ten
K ins
Interne tadre
Impor ts</w>
Ima ge
I K-
Home page</w>
Haupt zeitleiste</w>
HTT P</w>
H igh</w>
Grupp en
G o</w>
Füll methoden</w>
Fra me
Formular feld</w>
Fer tig</w>
Farbt öne</w>
F re
F ig
Ex am
Err or-
Err or
Ereigni ssen</w>
Er setzt</w>
En thält</w>
Em bed</w>
Einstellungse bene</w>
Eigenschaften inspektors</w>
Eff ect</w>
Druckfarb en
Dom äne</w>
Di en
Daten sätze</w>
D ele
Cu ePoint</w>
Combo Box</w>
Col la
C hin
C ase</w>
Button- Komponente</w>
Br ushes</w>
Bitmap Data</w>
Beschleun igung</w>
Be wirkt</w>
B one</w>
B at
Aufnah me
Auf ruf</w>
An passungen</w>
Al lows</w>
Acrobat -
Abbild ungen</w>
Ab schnitte</w>
3 G
. p
. as</w>
- Konstruktor</w>
übereinstim men</w>
ü cken</w>
ö nen</w>
änder ungen</w>
zwi schen
zurückzu kehren</w>
zugr unde</w>
zu zugreifen</w>
zi p
y. adobe.com</w>
y P
wiederhol en</w>
wieder verwenden</w>
wei s
we g</w>
w an
vie wed</w>
vi r
vi es</w>
verklein ern</w>
vereinfa chen</w>
ver arbeiten</w>
vari iert</w>
ursprüngli ch</w>
ur ven</w>
ur -
upper- left</w>
ul ar
typ ically</w>
twe ened</w>
tu s</w>
tr ie</w>
to u
throw n</w>
ther ing</w>
teri a</w>
ter m</w>
te sting</w>
tas k</w>
ta ge
t öne</w>
t äts
t al
synchron ize</w>
synchron isieren</w>
sub class</w>
ste board</w>
st ab
speci fying</w>
sp uren</w>
smoo th
sharp ening</w>
sequ enzen</w>
separ ately</w>
sch lä
sch lo
schlo ssen</w>
sampl ed</w>
s sern</w>
s inn
rot ates</w>
riter ien</w>
resiz ed</w>
remain ing</w>
rect angles</w>
reali sti
ran dom</w>
r ing</w>
pu t-
perform ed</w>
p icker</w>
over lay</w>
op ti
ol u
off set</w>
objek ts</w>
o ur
net working</w>
na mens</w>
n app
mögli ch
modifi er</w>
mo vies</w>
mask ierten</w>
main tain
ma n</w>
lä sst</w>
lo op</w>
le bedienfeld</w>
lay outs</w>
l -click</w>
k rei
k male</w>
jum p</w>
ir s</w>
inter pol
inter aktiven</w>
inte gr
individu ally</w>
incre asing</w>
in vok
in st</w>
in dependent</w>
ima ge
ih rem</w>
iel e</w>
i sol
i sch</w>
hel ler</w>
hand ler</w>
hal f</w>
ha ft</w>
h app
gra d</w>
gi ves</w>
geren dert</w>
gen utz
gen eri
geb nisse</w>
ge zogen</w>
ge eignet</w>
ge dreht</w>
g lätt
führ ung</w>
fär ben</w>
forma tierung</w>
foot note</w>
fer t</w>
f am
ext rah
exist s</w>
ex per
er ungspunkt</w>
enthalten en</w>
embed ding</w>
el se</w>
ek tivi
einz ige</w>
ei gen</w>
ectr um</w>
e ten</w>
e bar</w>
druck baren</w>
dra ws</w>
down loaded</w>
distribu ted</w>
distor tion</w>
digit alen</w>
die selben</w>
di tor</w>
di tion
di mmed</w>
develop ers</w>
dat um</w>
dar stellen</w>
d eci
consi stent</w>
conf lic
communit y.adobe.com</w>
ck- and-
ck-and- white</w>
chan is
ch i
bla ck-and-white</w>
bi ts</w>
besser e</w>
berech net</w>
bearbeitungs modus</w>
be arbeitung</w>
b lic
au sch
an zeigt</w>
an wei
aga inst</w>
accur ate</w>
ac k</w>
ac count</w>
Zertifik at
Zeilen schalter</w>
Wasser zeichen</w>
Vorschau bild</w>
Vollton farb
Video dateien</w>
Verw alten</w>
Verknüpfungen bedienfeld</w>
Variab len
Val ues</w>
U S
U I-
Transforma tions
Tie fe</w>
Text block</w>
Text Input</w>
Ta gging</w>
T ree</w>
T op
Sz enen</w>
Stapel verarbeitung</w>
St op
Spra chen</w>
Sh are
Ser vers</w>
Schlüssel bild</w>
Scal ing</w>
S um
S m
S ample</w>
Rän der</w>
Recht ecke</w>
R ot</w>
R auschen</w>
Qu ality</w>
Proto koll</w>
Progress Bar</w>
Preser ves</w>
Posi tionen</w>
Polic y
Poin t-
Pipett e-Werkzeug</w>
Pas st</w>
Pan els</w>
Pack age</w>
Pa yP
P encil</w>
Over print</w>
Organ is
Object- Klasse</w>
Mod i</w>
Misch farbe</w>
Miniatur ansichten</w>
Measure ment</w>
M -
Lo tus</w>
Lo ad
Line ale</w>
Licht quelle</w>
Layou ts</w>
Kompatibili tät</w>
Kommen tieren</w>
Ke y</w>
K ar
J ob</w>
In c</w>
Impor tiert</w>
IC O
Ho ch
Hilfs linie</w>
HD R-
H ere</w>
Groß buchstaben</w>
Griff e</w>
Graustu fen</w>
Graphi cs
Gra yscale</w>
Gra dient
Glob al</w>
Gerä te
G lü
Farb raum</w>
Farb management</w>
Farb bedienfeld</w>
FD F</w>
F ull
F it</w>
Ergeb nissen</w>
Er mögli
Entf -Taste</w>
End punkt</w>
Em bed
Ein -</w>
Dupli zieren</w>
Drucker marken</w>
Druck ern</w>
Drop let</w>
Di g
Deckkra ft
DataGri d-
D ICO
Ctr l-click</w>
Cre ating</w>
Colum n</w>
Chan nels</w>
Categor ies</w>
C lic
Bildschir men</w>
Bewegungs- Tween</w>
Bestimm t</w>
Be zeichner</w>
Assign ments</w>
Artik el</w>
Anzeige objekte</w>
Alt- drag</w>
Absatz formate</w>
Ab fra
7 2</w>
6 -
3D- Ebene</w>
3 00</w>
2 00</w>
1 5
. N
- Tags</w>
ähn liche</w>
ä ten</w>
Über lager
zusammengesetz ten</w>
zugän glich</w>
zu fäl
zahl r
z ö
wiederhol t</w>
wh ere
wel len
wei t</w>
web sich
vir tu
ver y
ver teilt</w>
vali dat
un separ
u tori
typ en</w>
twe en
trä gt</w>
tru st</w>
tivi ty</w>
tie fe</w>
th rea
threa ded</w>
ter ed</w>
t ro
t oler
toler ance</w>
symbol -
sub stitu
su per</w>
steuer ung</w>
st and-
stand- alone</w>
st -
spie gelt</w>
spezifi sche</w>
sp fad</w>
sp ath</w>
so gar</w>
simu lieren</w>
sieh e</w>
si te
se m
se -
schn eller</w>
schließ t</w>
scan ning</w>
sc enes</w>
s einer</w>
ru lers</w>
requ est</w>
recipi ents</w>
re verse</w>
re por
quad rati
proto type</w>
promp ts</w>
pp er
plug- in</w>
placehol ders</w>
pl ex
persp ektivi
per man
pack ages</w>
p en
optim ize</w>
op tion
occurr ences</w>
objek ten</w>
ober ste</w>
o -
norm alerweise</w>
norm ale</w>
neu tr
ne ver</w>
n äh
multi pli
move ment</w>
m us</w>
m illi
m a</w>
lower -
lo go</w>
lin ed</w>
ligh ts</w>
ligh tly</w>
lich keit</w>
li teral</w>
li mi
let ters</w>
len s</w>
l ur
l umin
kön nte</w>
korrig ieren</w>
konfiguri ert</w>
kom men
kan äle</w>
k ör
jo in</w>
iz er</w>
interag ieren</w>
instan ti
inser ting</w>
hö he</w>
ho t
ha ving</w>
größ ere</w>
gewi ssern</w>
geta g
gespeich erte</w>
gent a</w>
gefü gten</w>
ge ometry</w>
ge bene</w>
g ge
fü n
for ward</w>
fließ en</w>
fl uss</w>
fig ures</w>
ffi cu
ex pla
ex it</w>
es -
err eicht</w>
er stellte</w>
er läu
el im
effi ci
dre h
dra gged</w>
dou ble</w>
dop tionen</w>
di fficu
degre es</w>
dar k</w>
d ges</w>
cri teria</w>
condi tional</w>
comp any</w>
comm only</w>
col on</w>
ch a
cap sul
calcu lations</w>
cal lback</w>
ca che</w>
c lone</w>
c le
c ard</w>
brow sers</w>
bor gene</w>
besi tzen</w>
be zo
b it
aus sieht</w>
at en
at elli
at e-
as set</w>
an ker</w>
allgem eine</w>
align ed</w>
absolu te</w>
abili ties</w>
abge blendet</w>
Zwisch en
Zeich nung</w>
Y -
X FL</w>
X FL
Wör tern</w>
Wäh rend</w>
Wäh lt</w>
Wel come</w>
W hi
Video -</w>
Ur spr
Untersch ied</w>
Unter ordner</w>
Unter klassen</w>
Un do</w>
Tween- Folge</w>
Stam p</w>
So cket</w>
Schnitt marken</w>
S ort</w>
S ingle</w>
Ro tation</w>
Ri ch</w>
Registri erungspunkt</w>
Read y</w>
Re d
Punk t
Prü fen</w>
Prä sen
Proz ess</w>
Pat tern</w>
PDF- Portfolios</w>
P lay</w>
Ord nern</w>
Nummer ierung</w>
Ne w
N ich
Muster seite</w>
Multi medi
MovieCli p-
Mon tage
Mo del</w>
Mehr ere</w>
Mat ch</w>
Live- Filter</w>
Li te</w>
Leer taste</w>
La b</w>
L ok
L E</w>
Kop ien</w>
Komponenten instanz</w>
Kan ä
Instanz name</w>
I s</w>
Histo gram
Hi dden</w>
Halb ton
HS B</w>
H oriz
H ex
Graphi c</w>
Grafik rahmen</w>
Ger ät</w>
G lätt
G it
Format s</w>
F- Dateien</w>
Ermögli cht</w>
Er höhen</w>
En gli
Ellip se</w>
Ein heit</w>
Ein betten</w>
Ebenen maske</w>
Druckfahnen -</w>
Dritt anbie
Dokumen teigenschaften</w>
Dias how</w>
Di git
D on</w>
Compu ter
Comm on</w>
Com bin
Code zeile</w>
Cli pping</w>
C lone</w>
C ell</w>
Bü h
Butt ons</w>
Blen den
Bild dateien</w>
Bibliothek s
Beweg ungsvor
Befeh len</w>
Be havi
Auswahl begrenzung</w>
Ausgewähl te</w>
Ani mat
Anforder ungen</w>
An genommen</w>
Al gorith
Active X</w>
Active X-
Acrobat .com</w>
9 9
9 .
2 .
1 -
überlapp ende</w>
Überfüll ungen</w>
Über lapp
zusammen geführt</w>
z ed</w>
wor d-
wo -
wieder geben</w>
wh en
when ever</w>
werkzeu gen</w>
we s
w ner</w>
w ar</w>
vorange gan
vorangegan genen</w>
vor einstellungen</w>
vie w
video s</w>
vid00 7
vid0 12
verwal tet</w>
ver s
vari ab
v ant</w>
u pper</w>
u int</w>
tu red</w>
tra ster</w>
tor ies</w>
top ics</w>
tionsk urven</w>
time stamp</w>
tier enden</w>
ti ps</w>
ti o</w>
ti c</w>
tempor ary</w>
tab ility</w>
ta sten</w>
t n</w>
sur roun
sub tra
sub set</w>
stream s</w>
stan ts</w>
stam men</w>
stac king</w>
st andards</w>
squar es</w>
spie geln</w>
son en</w>
some times</w>
sinn voll</w>
she ar</w>
sh ort</w>
schn elle</w>
sch lüssel</w>
s weisen</w>
s lightly</w>
ru les</w>
ru ch</w>
ro und</w>
ri ch</w>
revie wer</w>
rele vant</w>
relationshi p</w>
rel a
ref ers</w>
rea g
re store</w>
re gel
qu es
pur pose</w>
psho t</w>
proper ly</w>
preci se</w>
position ed</w>
posi tioniert</w>
per son</w>
pan ts</w>
pa irs</w>
p unctuation</w>
p ly</w>
over set</w>
optim ale</w>
on ym
on Meta
onMeta Data</w>
ome trie</w>
ok u</w>
off enen</w>
occurr ence</w>
obj ec
notwen dig</w>
neu er</w>
n el
mid tones</w>
mid d
midd le</w>
mi tive</w>
men ge</w>
me an
mar gins</w>
m mer</w>
m l
läu ft</w>
lä dt</w>
le av
la g</w>
l ss
kl einen</w>
kin ds</w>
k lick</w>
k i
k ategor
int ro
insp ection</w>
ins besondere</w>
ing AS
ine mati
in form
in dent</w>
ignor ieren</w>
ide al</w>
high- resolution</w>
hi sto
hal ter</w>
hal ftone</w>
größ eren</w>
gra du
glob alen</w>
geschütz t</w>
geschloss enen</w>
geo spati
gan gs</w>
g ger
fre ie</w>
flo ating</w>
fi ve</w>
fe wer</w>
f ri
f ier
f all</w>
ex peri
ex clu
ex change</w>
erläu tert</w>
erkenn t</w>
er lau
er folgt</w>
er bt</w>
entsp err
enco ded</w>
el lt</w>
el les</w>
eigen t
e men</w>
durch geführt</w>
du ration</w>
down loads</w>
dom äne</w>
do ts</w>
des selben</w>
defin ierte</w>
de v
dat a
da tionskurven</w>
d adurch</w>
correc tion</w>
compli ant</w>
comp ile</w>
comm er
col or-
ck ets</w>
ch ste</w>
cap tion</w>
c tions</w>
buil ding</w>
break s</w>
bj ekt</w>
bestimm ter</w>
benöti gt</w>
benan nt</w>
ben de</w>
bearbeit bar</w>
be schreiben</w>
be heben</w>
b b
b an
ausgewähl tes</w>
aus füllen</w>
au er</w>
attemp t</w>
as sen</w>
ar range</w>
ander er</w>
am ong</w>
akzep tiert</w>
aff ecting</w>
achie ve</w>
Zust and</w>
Zur ück
XML- Format</w>
Whi te</w>
Website- Verbindung</w>
Web DA
War nung</w>
W he
Vordergrund -</w>
Vorder grund</w>
Video wiedergabe</w>
V on</w>
Un like</w>
Um ri
URL Requ
U V</w>
U V-
Toler anz</w>
Tile List</w>
Text uren</w>
Teil nehmer</w>
Tabul ator</w>
Tab s</w>
TO C</w>
Stream ing</w>
Sti len</w>
Standard werte</w>
St ellt</w>
Speicher or
Sor tieren</w>
Sor tier
Smar t
Si tzung</w>
Shortcu ts</w>
Shar ed</w>
Shap e-
Schrift größe</w>
Schrift art
Schrei ben</w>
Schlagsch atten</w>
Sam ple
Rück gängig</w>
Ri chtet</w>
Remo te-
Reg ular
Rechtschreib prüfung</w>
Recht ecks</w>
Re places</w>
Ra tio</w>
RS S</w>
R un
Qu ar
Pro xy</w>
Pro xy-
Po wer
Pinsel spitze</w>
P I-
Oper anden</w>
Num ber
Ne ben</w>
Nach zeich
Montage fläche</w>
Mo de
Min im
Mas k
Mark up</w>
Macro media</w>
M ore</w>
M illi
Lig aturen</w>
Li cht</w>
Le err
Lauf zeit
L asso
Konstruk tor
Komponenten- Referenzhandbuch</w>
Kan al
K ol
Interak tionen</w>
In put-
Iden tit
I S
Hel lo
H ül
H ierarch
H ard
Groß -</w>
Gra dationskurven</w>
Glyp hs</w>
Gesam t
Geometric Sprite</w>
Ge he</w>
G rün
Fül len</w>
Fin ally</w>
FileReference .
Fen ster
Fa vor
Event Listener</w>
Erweiter ungen</w>
Entwurf s
Entwick ler</w>
Enc oder</w>
Ein zug</w>
Ein schränkungen</w>
Ein blenden</w>
Eigenschaften schlüssel
E-Mail- Nachricht</w>
E ra
E r</w>
E CM
Dynami c</w>
Drop down
Dokumen tfensters</w>
Dig im
Di men
Di c
Des crip
Den ken</w>
Dateit ypen</w>
DataGrid- Komponente</w>
D N
Contribute- Browser</w>
Con si
Compu ters</w>
Commun ity</w>
C PS-
Büh nen
Bo th</w>
Blogein trägen</w>
Beding ung</w>
Be zug
Be su
Ausgabe gerät</w>
Aus füllen</w>
Aus blenden</w>
As sets</w>
An alysi
An aly
Aktualisi eren</w>
Aktu elle</w>
AV M
AI R-
8 -Bit-
3D- Modells</w>
200 7</w>
2 16</w>
2 -
0 1</w>
. xml</w>
- Parameter</w>
- Editor</w>
ütz en</w>
überlapp enden</w>
übereinstim men
Überfüll ungsvor
Über schrift</w>
zurück gegeben</w>
zu geben</w>
zip iert</w>
zentri ert</w>
water mark</w>
war en</w>
wa p</w>
vordefin ierten</w>
vi ce
verschachtel ten</w>
vergröß ert</w>
verbin den</w>
ver zeichnis</w>
ver sucht</w>
ver ify</w>
v ier
upper- right</w>
unter suchen</w>
un ächst</w>
un mittel
unmittel bar</w>
un defined</w>
un ch</w>
tur ing</w>
tu n</w>
tre ated</w>
trans l
trans fer</w>
tra ditional</w>
tiv es</w>
ti cally</w>
thir d</w>
ter -
t on</w>
t ing
success fully</w>
sub classes</w>
stri ct</w>
stand s
ssym bol</w>
spac ebar</w>
sp elling</w>
sp al
sk rip
sin ce</w>
sich erstellen</w>
siati sche</w>
sh or
setz ung</w>
sel f-
se k
se arches</w>
schwar ze</w>
schreib ungen</w>
sc ope</w>
s ors</w>
s einem</w>
rol len</w>
render ed</w>
recogni ze</w>
recei ves</w>
reas on</w>
pu blic
program m</w>
produ cts</w>
prece ding</w>
pre press</w>
posi tions</w>
pop ul
platz ierte</w>
pa sting</w>
p ra
overri des</w>
orig in</w>
organ ization</w>
opti mal</w>
on en</w>
ob wohl</w>
o f
o chro
n ame
mögli che</w>
modi fying</w>
me chanis
main tains</w>
lower case</w>
los lassen</w>
lo wing</w>
li k
le s
le di
ledi glich</w>
lation spro
lang sam
lan ge</w>
korrektur en</w>
kont uren</w>
kon zipiert</w>
komp ili
k ens</w>
it e
it ance</w>
isi ert</w>
initi alisi
ing ly</w>
index ed</w>
in ess</w>
il ie</w>
ig keit</w>
identifi zieren</w>
hyphen ation</w>
her gestellt</w>
hel p
har mon
hand h
gri ds</w>
grafi k</w>
ge änder
ge stellten</w>
g alerie</w>
förmi ge</w>
frequ ently</w>
fortlauf end</w>
fier s</w>
ff er</w>
festgele gten</w>
fer tig</w>
farb igen</w>
farb ige</w>
fac ts</w>
expor ts</w>
er stellten</w>
er fassen</w>
en ly</w>
en er</w>
elim in
eff ekt</w>
edi tability</w>
ed -
e ma
dunk elt</w>
dispat ches</w>
deta iled</w>
det ection</w>
dele ting</w>
dar zustellen</w>
cro pping</w>
confir m</w>
communic ate</w>
ci al</w>
choi ces</w>
cha in</w>
ca ps</w>
c ations</w>
bra ckets</w>
besi tzt</w>
bene ath</w>
benan nte</w>
be stätigen</w>
be schleun
b lur
b and
aus schließlich</w>
argu ments</w>
app sch
anim ieren</w>
am ilie</w>
ak tion</w>
advan tage</w>
ac y</w>
abge spielt</w>
abge flachte</w>
Zu schneiden</w>
Zoom werkzeug</w>
Zeit punkt</w>
Zei gen</w>
Z unächst</w>
XML List</w>
X -</w>
Verlauf s</w>
Verhalten sweisen</w>
Vergröß erungs
Vergröß ern</w>
Ver tik
Uhr zeit</w>
UI- Komponenten</w>
Tra pping</w>
Tastaturbefeh lss
Tast atur</w>
Tabellenz ellen</w>
Ta sten
T E</w>
T -
Symbol ebedienfeld</w>
Su cher
Spo t</w>
Speich ert</w>
Speich er</w>
Sp ac
So ft
Skele tt</w>
Skal ierungs
Sit u
Sim il
Shado w</w>
Separ ations</w>
Sel ects</w>
Sek unden</w>
Seiten bereich</w>
Se ek
Schn appsch
Sch wellen
SW C</w>
S pre
Rol lover</w>
Re member</w>
Radio Button-Komponente</w>
RA M</w>
R and
R -Datei</w>
Querver weise</w>
Quell datei</w>
Produ k
Proces sing</w>
Policy File</w>
Pla ces</w>
Pipe tte</w>
Per son</w>
Parame tern</w>
Parame ter
Pak ets</w>
PDF -</w>
Ober flächen</w>
Ober fläche</w>
Nich t-
Netzwer k</w>
Net Stream
N äch
N ull</w>
Modell hierarchie</w>
Misch modi</w>
Maßein heit</w>
Maxim um</w>
Mar ks</w>
Ma ster</w>
Lo g</w>
Las so</w>
LDA P</w>
Kontur en
Konta kt
Komprim ierungs
Klassen pfad</w>
K noten</w>
JD F-
InDesign- Benutzer</w>
Histo gramm</w>
Hier mit</w>
Hand ling</w>
Hal te
H ar
Grundlinien raster</w>
Grund farbe</w>
Gl eiche</w>
Ge ometrie</w>
GRE P</w>
G am
Funk tion
Frei hand
Fre i</w>
Flash- Authoring-
Fel dern</w>
Farb rä
Farb bereich</w>
F ree</w>
F ix
F F</w>
Ereignis objekt</w>
Er satz
Ebenen komp
Du plex
Dokument seite</w>
Dis able</w>
Debu g</w>
De velop
De st
Datei informationen</w>
Datei formate</w>
D ek
D ec
Cue- Point</w>
Contribute- Administrator</w>
Cont ents</w>
Codebeisp iel</w>
Cho osing</w>
Ch ild</w>
Cap ture</w>
Can cel</w>
By te
Bu il
Bu chst
Bild -
Berech nungen</w>
Befeh ls</w>
Bearbeit barkeit</w>
Basi s
Back ground</w>
B it
B ack</w>
Automati c</w>
Au gen
Au ch</w>
Artik el
Anima tion
An ordnen</w>
An ker</w>
Alterna tive</w>
Al pha</w>
Al pha
A sp
A chten</w>
7 .
3 60</w>
- time</w>
ü ssi
äl chen</w>
Über schriften</w>
zurückzu setzen</w>
zugewi es
zu schneiden</w>
zu griff</w>
zeich nete</w>
wär ts</w>
weiter en</w>
wan ted</w>
w ing
voreinge stellten</w>
voreinge stellte</w>
vollständi gen</w>
visu elle</w>
vi ous</w>
vereinfa cht</w>
ver gleich
ver fol
valid ation</w>
ur sa
ur ing</w>
unter laden</w>
un erw
unerw ünsch
un denen</w>
umgeke hrt</w>
um gebung</w>
ul er</w>
u ti
tt ed</w>
transform ed</w>
tool bars</w>
to ward</w>
to ur</w>
tit el</w>
tion -
ter ms</w>
t wort</w>
t tern</w>
t ele
symbol- editing</w>
supp ose</w>
sub string</w>
su lt</w>
su gge
stu fen</w>
stati schen</w>
star t
st attdessen</w>
st ack
stack ed</w>
spr ingen</w>
spiel en</w>
sp read
sp lice</w>
sp here</w>
sor ted</w>
si tu
she ets</w>
shar ing</w>
setz ungs
ser i
sequ enti
sen ding</w>
sen de</w>
schär fe</w>
schri tt</w>
sch em</w>
sch alten</w>
scap e</w>
s lic
restric ted</w>
require ments</w>
refl ects</w>
rec ently</w>
re ve
re st</w>
re ser
re position</w>
re -
ra ys</w>
ra ft</w>
ra d</w>
qu ick</w>
prä zi
propor tional</w>
produ ction</w>
priv ate</w>
polyg ons</w>
plug- ins</w>
play head</w>
perman ently</w>
per son
per forms</w>
per -
partici pants</w>
p e</w>
overri dden</w>
or g</w>
o wner</w>
o sition</w>
o ft</w>
o ben
o ad</w>
nor malen</w>
n un</w>
mäßi gen</w>
mitt ed</w>
mit einander</w>
men s
mem bers</w>
meas ured</w>
me tri
mark ed</w>
ma c
mac ro</w>
lä ttern</w>
lo op
le ase</w>
label ed</w>
la st
kre u
kop f</w>
kompati b
ko dieren</w>
klas si
k ro
j apan
issu es</w>
intro du
integri erte</w>
int ent</w>
inher itance</w>
ing ui
incre ments</w>
in tu
in ed</w>
ier e</w>
ick ness</w>
i ges</w>
ho ch</w>
high est</w>
hi story</w>
her vor
head ings</w>
hard ware</w>
happ ens</w>
h ilfslinien</w>
gän gen</w>
grafi sche</w>
gi c</w>
getag gten</w>
genommen en</w>
gener ierten</w>
gener ally</w>
gen des</w>
gehö rt</w>
ge steuert</w>
ge st</w>
ge kennzeichnet</w>
g ungs
fün f</w>
frü here</w>
fortzu setzen</w>
foo ter</w>
flatten ing</w>
fil es
fil en
filen ames</w>
figu red</w>
fel d
fa st</w>
f te</w>
f ar
exp ect</w>
ere fore</w>
er haft</w>
entsperr en</w>
endgül tigen</w>
empfoh len</w>
el ten</w>
ec imal</w>
eben en
e yedropper</w>
e ps</w>
dro p-
distribu tion</w>
disc us
difficu lt</w>
diagon al</w>
det ect</w>
design s</w>
descrip tions</w>
del i
dec imal</w>
dau erhaft</w>
dat es</w>
dar stellt</w>
corpor ated</w>
cor respond</w>
cont ra
consi sts</w>
con figured</w>
com .</w>
clo sing</w>
clo ck
clock wise</w>
ck e</w>
cho sen</w>
chec kt</w>
ch s</w>
ch ange
c ar
bor ders</w>
bo dy</w>
block s</w>
blen ded</w>
bin den</w>
bildschir m</w>
biblio theken</w>
berech nung</w>
beeinflus sen</w>
be vorzu
be tra
bal ken</w>
back -
b rei
b ber</w>
automati schen</w>
aus wirken</w>
aufzu heben</w>
auf zunehmen</w>
au st
au en</w>
au ber
at er
associ ate</w>
arti facts</w>
arch i
appro ach</w>
an twor
an aly
ali en</w>
ale tt
al ize</w>
al it
akzep tieren</w>
add Page</w>
add EventListener</w>
ad ecimal</w>
acc el
ac rob
a ilable</w>
a ging</w>
Zusä tzlich</w>
Ziel objekt</w>
Ziel dokument</w>
Zeilen umb
Zeichen s</w>
Zeichen bedienfelds</w>
Zeich nungs
Zeich n
XML- Daten</w>
Wir e</w>
Wei sen</w>
We chsel
W and</w>
Video ebenen</w>
Video ebene</w>
Video clip</w>
Vi de
Veröffentlich ung</w>
Verschie bung</w>
Verbindungs schlüssel</w>
Ver gewissern</w>
Vektor maske</w>
Unter gruppe</w>
Uni ts</w>
Umschalt -</w>
Um fang</w>
UN I
Transforma tion</w>
Tim ed</w>
Th erefore</w>
Text rahmens</w>
Text formatierung</w>
Text Input-
Tex ts</w>
T utori
Stri che</w>
Stream s</w>
Sti lei
Sti ft</w>
Steuer punkt</w>
Stapel reihenfolge</w>
St ates</w>
Sound Mix
Sound .
Situ ationen</w>
Shap es</w>
Seg menten</w>
Schwarzwei ß
Schlüssel wort</w>
Schlei fe</w>
Sch räg
Sch ein</w>
Sch at
Sav es</w>
S ter
S moo
S he
S aturation</w>
S S</w>
Rul er</w>
Richt linie</w>
Registerkar ten</w>
Referen z</w>
Re ch
RS S-
RI P-
Quad rate</w>
Provi des</w>
Proto koll
Proto col</w>
Programm ieren</w>
PostScript- Datei</w>
Popup- Notiz</w>
Plu g-
Platz ierung</w>
Platt form</w>
Pinsel spuren</w>
Pfeil tasten</w>
Per sonen</w>
P lease</w>
P U</w>
P M
Optim ierungs
Oper ator</w>
Op acity</w>
Objek tzeich
O PI</w>
Nach richten</w>
N T
Meta zeichen</w>
Maßein heiten</w>
Maus klick</w>
Mark er</w>
M F</w>
LocalConnection .
Lich ter</w>
L E
Koordin aten
Konstan ten</w>
Kon figuration</w>
Klein schreibung</w>
Kapit älchen</w>
Kan al-
Kach el</w>
K raft</w>
K al
JPEG -</w>
Inte gration</w>
Initi ator</w>
Inhalt s-Bedienfeld</w>
In sp
IP v
I sol
I g
I S</w>
Hot spot</w>
Histo gram</w>
Her unterladen</w>
HTML- Seite</w>
H ea
GI F-Datei</w>
Füll ungen</w>
Fon ts</w>
Fin der</w>
Fiel ds</w>
F i
F au
ExternalInterfac e.
ExternalInterfac e
Event Dispat
Ev en</w>
Eingabe hilfen</w>
Ebenen stil</w>
Dra wing
Dokument bibliothek</w>
Direc tor</w>
Defin iert</w>
Daten satz</w>
D X
Correc tion</w>
Cop y
Contain er
Consi der</w>
Comple ting</w>
Commun it
Clic king</w>
Ch ecks</w>
C C
Bla u</w>
Bildschirmlese hilfen</w>
Bewegungs- Tweens</w>
Besu cher</w>
Beschleun ig
Ber eit
Benutzer namen</w>
Behavi ors</w>
Begrenz ung</w>
Bedienfel dern</w>
Be zieh
Be g
Be deut
Bau m
B ul
B e</w>
Av ailable</w>
Auswahl rahmen</w>
Ausnah men</w>
Ausgangs anwendung</w>
Ausgabe gerä
Aus führen</w>
Auftrags definitionen</w>
Audio daten</w>
Ar range</w>
Antwor ten</w>
An twort</w>
An mer
Alarm Clock</w>
Adjust ment</w>
Abspiel en</w>
Absatz bedienfeld</w>
Absatz -</w>
Ab weich
Ab stände</w>
Ab schnitts
A rea
6 7</w>
5 -
3D- Mod
32 -Bit-
200 3</w>
2 5</w>
19 9
0- 9</w>
- Dokument</w>
über wa
ähn elt</w>
ä k
äk chen</w>
Über gänge</w>
zusammengesetz te</w>
zusammen fügen</w>
zurück gibt</w>
zu ordnen</w>
z entr
x t</w>
wri ter</w>
wi der
where as</w>
wei ß</w>
w in
vorhand enes</w>
vor her
visu ally</w>
veröffent lich
verschie bt</w>
verlu st
verklein ert</w>
ver ursa
variab len</w>
val u
ut ure</w>
unterschied lich</w>
un ten
un erwar
umzu wandeln</w>
um en</w>
typ o
tre ffen</w>
top- level</w>
tim men</w>
tifi cation</w>
ti sche</w>
ti al</w>
th ings</w>
th ickness</w>
th em
tf amilie</w>
tei ligen</w>
teco de</w>
targe ted</w>
tan e
t un
surroun ding</w>
subsequ ent</w>
stre t
str y</w>
str ength</w>
star tup</w>
star ted</w>
spä teren</w>
sor tiert</w>
some one</w>
situ ations</w>
simul ate</w>
signifi c
sei tige</w>
schn ell
schl uss</w>
scan ned</w>
sc rolling</w>
s napp
s am</w>
righ ts</w>
represent ed</w>
represen tation</w>
repe ating</w>
rela tiven</w>
regulä re</w>
refl ected</w>
rechteck igen</w>
rec ent</w>
re vert</w>
re start</w>
re source</w>
re par
re ferred</w>
qu er
program me</w>
produ ct</w>
pro z
pri mar
polic ies</w>
po st</w>
ph an
permis sion</w>
per s
pas ses</w>
parti ally</w>
pan ded</w>
page- layout</w>
p ac
origin ally</w>
oper ands</w>
op po
on e
om it</w>
o therwise</w>
o si
numeri sche</w>
num mern</w>
norm ally</w>
nich t-
n ie</w>
mögli chen</w>
mittl ere</w>
mess er</w>
mel dungen</w>
mask ieren</w>
m als</w>
lumin ance</w>
loy e
lo sing</w>
lig atures</w>
lic en
leich ter</w>
kon si
komponen te</w>
komplex en</w>
komm t</w>
kombin ationen</w>
kodi ert</w>
klein eren</w>
ire d</w>
inser ts</w>
inher ited</w>
inhal t</w>
in depen
indepen d
independ ently</w>
in ch</w>
ien ce</w>
häu fig
histo gram</w>
herunter laden</w>
hea ders</w>
he ber
ha d</w>
h ieren</w>
h ex
gu t</w>
grupp iert</w>
grundle genden</w>
gra f
gr ei
glätt et</w>
gh tness</w>
gg le</w>
gg ers</w>
gesch windigkeit</w>
ger unde
gefüll te</w>
gedruck ten</w>
ge tween
ge scan
ge krümm
ge filter
gan ze</w>
fre sh</w>
fra g
fli kt</w>
flash. display
filter ed</w>
fal sch</w>
f uture</w>
f en-
exp ir
erweiter te</w>
erwar tet</w>
er ase</w>
er .
emp fangen</w>
ellRender er</w>
ele menten</w>
el te</w>
el ektr
elektr on
einzu blenden</w>
einge schlossen</w>
eindeu tigen</w>
ec tion
dunk l
doku ments</w>
dist ort</w>
dist ingui
differ ently</w>
dien st</w>
dien en</w>
di stra
di g
den selben</w>
demonstr ates</w>
dele tes</w>
dec lare</w>
dat en-
da für</w>
d an
cop ying</w>
cont ent
consider ed</w>
con stants</w>
compre ss</w>
communic ation</w>
co verage</w>
choi ce</w>
ch ine</w>
ch ildren</w>
cap it
c are
bu m
bu ffer
bo x
blu r</w>
blen ds</w>
bj ect</w>
bin ary</w>
bil ds</w>
ben einander</w>
be schneiden</w>
bar es</w>
bal ance</w>
b ones</w>
auszu richten</w>
aus wählt</w>
aufge hoben</w>
atta ch</w>
arr anged</w>
argu ment</w>
arbei teten</w>
an ordnen</w>
an no
advan tages</w>
ade zimal
activ ated</w>
ab ly</w>
a y</w>
a men
a hren</w>
a de</w>
Zertifik ate</w>
Zeichen formate</w>
Zei ger
Z ell
Z auber
Wor k</w>
Werkzeug leisten</w>
Wel che</w>
Web- Foto
Web seiten
Vi su
Vi sible</w>
Ver zeich
Ver tical</w>
Ver teilung</w>
Ver sion
Ver borgene</w>
Val ue</w>
Unter schriften</w>
Unter schrift</w>
Unter klasse</w>
Um ständen</w>
U 3D</w>
Tween- Bereichs</w>
Tra p</w>
To p</w>
Tim er-
Th umbna
Th at</w>
Textabschnitts ansicht</w>
Text zeile</w>
Text ure</w>
Text ein
Text Area</w>
Text Area
Techni k</w>
Syst ems</w>
Symbol bearbeitungsmodus</w>
St andards</w>
St and
Sit e-
Sim u
Seiten bedienfeld</w>
Scrip t
Scre ens</w>
Schwellen wert</w>
Schiebere gl
Sch atten
S top</w>
S ol
S na
S S
Rück ruf
Registri erung</w>
Radi er
Ra stern</w>
RT F</w>
RG B
R ename</w>
Qu el
Qu alit
Proto typ
Proj ekte</w>
Proj ek
Program me</w>
Pre vious</w>
Pr ints</w>
Posi tions
Plu g</w>
Platz iert</w>
Pixelma ße</w>
PNG -Dateien</w>
P R
Or t</w>
Optim izer</w>
Objekt auswahl-Werkzeug</w>
Objek tt
NumericSte pper-
Name spaces</w>
Nachzeich ner
Must ern</w>
Mo ving</w>
Meta daten
Mer kmale</w>
Menü befehle</w>
Masken ebene</w>
Mak er-
Ma gic</w>
MP 4</w>
M X</w>
Leseri cht
Le hr
Lab el
L au
L O
Kontur farbe</w>
Konfigura tions
Kompili erung</w>
Kommentar liste</w>
Kenn wort
Inter la
In- RIP-
Hex adezimal
Har mon
Hand -Werkzeug</w>
H äkchen</w>
H ell
H .
H. 26
Größ en
Grupp ieren</w>
Genehm ig
G anz
G alerie</w>
Forma tierungen</w>
Forma tieren</w>
Form -
Fol gendes</w>
Flex -
Flat ten
Fil tern</w>
Fe ed
Farbver läufe</w>
Farbfel dern</w>
F und
F ran
F l
Ex ternal</w>
Er zeu
Entfer nt</w>
Ent sprech
End punkte</w>
En tries</w>
Einstellungse benen</w>
Edi tions</w>
Ebenen eigenschaften</w>
Durch messer</w>
Druckertrei ber</w>
Druckauf trag</w>
Druck vor
Druck t</w>
Down load
Dispat ched</w>
Dic tionary</w>
Descrip tion</w>
Da bei</w>
Contin ue</w>
Contain er-
Color Picker</w>
Codebeisp iele</w>
Cli ps</w>
Cir cle
Charac ters</w>
Ch ild
C ertific
C T</w>
Bu cket</w>
Bri ghtness</w>
Blen ding</w>
Bild auflösung</w>
Bezug spunkt</w>
Betriebss ystem</w>
Benutzerdefin ierte</w>
Beli chtung</w>
Be tra
Ba seline</w>
B ur
B ro
B and
Auth oring</w>
Aus drücke</w>
Audio -</w>
Au toren</w>
Au tom
Au dio</w>
Attribu ten</w>
Assi stant</w>
Arbeits speicher</w>
Ar chi
Applic ation
Angleich ung</w>
Anforder ung</w>
Analy se</w>
An lagen</w>
Al ways</w>
Ad ding</w>
Ad ap
Ach sen</w>
Ab schnitts</w>
Ab sch
A m</w>
6 00</w>
12 8</w>
1 0.
. ic
. com.</w>
- Symbol</w>
- Sandbox</w>
- Ereignis</w>
über schreibt</w>
über prüfung</w>
ü ge</w>
är en</w>
Überprüf ungs
Übergang spunkt</w>
Überfüll ungs
zö ger
zugehöri ge</w>
zuge schnitten</w>
zu zuweisen</w>
zeich ens</w>
zahlr eiche</w>
z z
z iel</w>
y our
your self</w>
wör terbuch</w>
wid ths</w>
wichti ge</w>
wei ßen</w>
w ave</w>
w av
vor kommen</w>
vol ler</w>
vid00 4
veröffentlich te</w>
verw and
vertrauenswür dig</w>
vergleich bar</w>
verbin dung</w>
veran schau
ver t
ver stehen</w>
ver ed</w>
ver bor
v ar</w>
us age</w>
unter geordnetes</w>
ungs farbe</w>
un expected</w>
um s</w>
um mi
u pper
upper case</w>
tz liche</w>
typ ed</w>
trä chti
tom er
tifi ed</w>
ti ver</w>
ti ges</w>
th reshold</w>
tf ahren</w>
tech nology</w>
te bene</w>
tatsäch lichen</w>
t wo-
t a</w>
stream ing</w>
stell er</w>
speziel l</w>
sp el
snipp ets</w>
signific ant</w>
si sch</w>
seh en-
schritt weise</w>
schrift arten</w>
schrie benen</w>
sch ützen</w>
sch we
sc r
s ungs
s timmen</w>
s las
s ingle-
s c</w>
rü n</w>
rän der</w>
roun ded</w>
rot ating</w>
rol lover</w>
ro te</w>
richti g</w>
ri chtet</w>
rel ation</w>
regi ster</w>
regi ster
re präsen
re define</w>
ran ges</w>
proble m</w>
pro fession
priv ile
primar ily</w>
pre ssed</w>
pre ss
polyg on</w>
po ten
pl ates</w>
piec e</w>
phan um
peri od</w>
pas sing</w>
pain ted</w>
pa steboard</w>
p ic
p c</w>
p ak
ori ented</w>
or ity</w>
op le</w>
on e-
ochro me</w>
no de</w>
nega tiven</w>
n ö
n ingAS
ningAS 2</w>
mon ochrome</w>
mittl eren</w>
mean ing</w>
mask ing</w>
masch in
man ch
manch mal</w>
ma sters</w>
ma pping</w>
lö cke</w>
lu g</w>
lrvid40 5
lrvid 4
logi schen</w>
local-with- files
lo ss</w>
lin g
lie st</w>
li g</w>
lei st
lear ningAS2</w>
le tting</w>
lationspro gramm</w>
konver tierung</w>
komprim ieren</w>
komponen ten</w>
kom ma
kno ck
k ün
k ö
k ator</w>
k X
j ik
jik um
invol ves</w>
instan zi
inher it</w>
in u
in tact</w>
in ing</w>
illi erte</w>
ierungs werkzeug</w>
i so
i ent</w>
hol ding</w>
hoch wer
ho tomer
ho sting</w>
ho stet</w>
hin ts</w>
hil fe
hex adecimal</w>
her unter</w>
heber recht
he bung</w>
ha se</w>
h eri
h enden</w>
h ance</w>
gängi ge</w>
gli chen</w>
geta gg
gera stert</w>
gen s</w>
gel ei
gefüll ten</w>
geb unden
ge teilt</w>
g ran
fra ctions</w>
fla g</w>
fl üssi
fi ts</w>
feh l
fas sung</w>
farb en-
fa hr
fa ch</w>
f tfamilie</w>
f r
extra ct</w>
extra c
expla ins</w>
execu te</w>
excep tions</w>
ev enly</w>
es ses</w>
es au
ertifi ed</w>
en sures</w>
en der</w>
en closed</w>
en bedienfeld</w>
en ari
ein trag</w>
eig ung</w>
ei stung</w>
ei l</w>
effi zi
e k</w>
druck t</w>
druck s</w>
druck er</w>
drei dimension
down loading</w>
documen t-
distra c
dimen sion</w>
diagram me</w>
di ge</w>
di erungs
di alog
dep end</w>
deklar ieren</w>
decre ases</w>
debu gging</w>
d ent
correspon ds</w>
continu ous</w>
col oriz
co ur
ci es</w>
ch teten</w>
ch r
capsul ated</w>
can cel</w>
calcul ate</w>
c ore</w>
br i</w>
br au
bo o
ble -
bezo gene</w>
benachbar te</w>
bei des</w>
bedienfel des</w>
bearbeit baren</w>
bearbeit bare</w>
be ste</w>
be hand
bar rierefrei
ausge checkt</w>
aus gedrückt</w>
assign ments</w>
as yn
ar rays</w>
ar m</w>
appro val</w>
ange hängt</w>
analysi ert</w>
an ge</w>
allow Domain</w>
allgem einen</w>
al phanum
al ert</w>
al em</w>
abhängi ge</w>
Zw ecke</w>
Zugriff s
Zeichen folgen
Z wei</w>
X P</w>
X HTML</w>
Work flows</w>
Wechsel n</w>
Warn meldung</w>
W ra
W ill
W ahl</w>
Vor kommen</w>
Vor gab
Visi o</w>
Verschie bungs
Ver schlüssel
Ver arbeitungs
Ver arbeiten</w>
Vektor -</w>
Up load</w>
Under line</w>
UTF- 8</w>
US A</w>
UR I</w>
U sed</w>
Type writer</w>
Track er</w>
Tie fen</w>
Tie fen
Text zeilen</w>
Text modus</w>
Teil auswahl
Tabulator reihenfolge</w>
T inten
T ile</w>
T as
Sä tze</w>
Symbol leisten</w>
Su ffix</w>
Su cht</w>
Stre u
Steuer punkte</w>
St empel
Sp i
Sound -
Sor tierung</w>
Sock et
So li
Smart- Objekte</w>
Sm all</w>
Sim ul
Sicherheits richt
Shader -
Ser ver-
Seiten über
Seiten größe</w>
Seiten format</w>
Segmen traster</w>
Seg ments</w>
S qu
S CO
SCO R
S C</w>
Rol lo
Rol e</w>
Ro ws</w>
Richtlinien dateien</w>
Res olu
Redu zierungs
Re verse</w>
Re moves</w>
Re aktion</w>
Radier g
Quick Info</w>
Quar kX
Qualit äts
Publish ers</w>
Prozent werte</w>
Proto kol
Progress Bar
Progre ss</w>
Proble m</w>
Platzhalter rahmen</w>
PayP al</w>
Papier s</w>
PDF- Optimierung</w>
P ic
P hotomer
Original datei</w>
Objek t-
O PI-
Nummer ierungen</w>
New s
Neu berechnung</w>
N ames</w>
Muster vorlagen</w>
Muster seiten</w>
Multi pli
Mon itor</w>
Miniatur ansicht</w>
Medi um</w>
Mat ches</w>
Mark ierungen</w>
Mal gruppe</w>
Mak ro
M XML</w>
M B</w>
Live- Vorschau</w>
Listen er-
Line ar</w>
Lin ked</w>
Li sts</w>
Li ght</w>
L ä
L A
Kore an</w>
Kontur stärke</w>
Konstan te</w>
Klein buchstaben</w>
Klassen definition</w>
Key words</w>
Kach eln</w>
Interak tiv</w>
Inter pol
Inter face</w>
Instan ce</w>
Inhaltsver zeichnis
Informa tions
Index position</w>
In to</w>
I O
Hierarch ie</w>
Her vor
Hello World</w>
H ue</w>
Graustufen bilder</w>
Graustufen bild</w>
Graustufen -</w>
Graphics .
Graphics. draw
Go o
Glätt ung</w>
Geometric Sprite-
G rün</w>
Fuß noten</w>
Funktions aus
Fran k
Formular en</w>
For me
Flächen -</w>
Fel d
Fehler ereig
Fau x</w>
Farbrä ume</w>
Farb wert</w>
FLVPlaybackCaption ing</w>
F4 V</w>
Ex peri
Ex change</w>
En d</w>
Eingabe text
Ein richten</w>
Eff ekts</w>
EPS -
ECM A
Dupli k
Druck maschine</w>
Dre ht</w>
Dra gging</w>
Dest ination</w>
Design s</w>
Defin es</w>
Defaul t
Debu gging</w>
Dar stellungs
D auer</w>
D W
Cont rast</w>
Con sole</w>
Code frag
Cli ent</w>
Ch anging</w>
Ca ps</w>
C L
C H
Butt on
Buil der</w>
Buchst ab
Box -Komponente</w>
Bildschirmlese hilfe</w>
Bild rate</w>
Bewegungsvor einstellungen</w>
Betriebssyst ems</w>
Beleu chtung</w>
Begrenz ungen</w>
Bedeut ung</w>
Baum struktur</w>
Bar rierefrei
B un
B tn</w>
B reak</w>
B lank</w>
AutoCA D-
Ausw ahlen</w>
Aus sehen-
Augen symbol</w>
As sign</w>
Art work</w>
Arra y.
Argu ment</w>
App le</w>
Anzeigeobjek t
Anmer kungen</w>
Anfang s
Analysi s</w>
An schnitt</w>
An schnitt
Alphakan äle</w>
Alig ns</w>
Al les</w>
Adjust s</w>
Ac tive</w>
Ac tion</w>
Abweich ungen</w>
Abspiel kopf</w>
Ab hän
AI -Datei</w>
A spect</w>
A B
8 5</w>
5 0
3 D
2 8
1. 3</w>
1 1</w>
.in c
-B it</w>
über grei
übergrei f
änder ung</w>
äl tere</w>
ähn eln</w>
Über sichts
Übersichts fenster</w>
Über satz
Än dert</w>
zusammen geführten</w>
zoom en</w>
zi al
zeichen folge</w>
z er</w>
wieder herzustellen</w>
werkzeu gs</w>
wel ches</w>
wechsel t</w>
we g
war n
warn ings</w>
w ä
w ann</w>
vie wer</w>
verzerr t</w>
vers a</w>
veranschau licht</w>
ver seh
verseh entlich</w>
ver lieren</w>
ver folgt</w>
ver biegen</w>
vari ations</w>
v als</w>
unterstütz ten</w>
unten -Taste</w>
ungse ffekte</w>
ung st
unerwünsch te</w>
under stand</w>
un wanted</w>
un lock</w>
u lar</w>
u ell</w>
u al</w>
twe ening</w>
tu al</w>
trie ve</w>
transform ing</w>
trans lation</w>
track s</w>
track back</w>
tra l</w>
tra dition
top most</w>
tivi tät</w>
th read</w>
text ures</w>
te ms</w>
tane ously</w>
ta x
ta gging</w>
t önen</w>
t wi
sub folder</w>
su che</w>
su bject</w>
stri kten</w>
stra h
sti len</w>
ste ch
spread sheet</w>
spel led</w>
sor ting</w>
sol che</w>
ske w</w>
sk ont
sk las
simul taneously</w>
sign ieren</w>
si k
si ert</w>
si eren</w>
si e
si de
sha des</w>
server- side</w>
ser vices</w>
se ek
se chs</w>
scr atch</w>
schwar zen</w>
sch ema</w>
scal es</w>
sam ple
s m</w>
s lug</w>
s atur
run -time</w>
roll ed</w>
ro bu
resultier enden</w>
resp ectively</w>
reprodu zieren</w>
referen ced</w>
redu cing</w>
recor ds</w>
re vi
re trieve</w>
re moving</w>
quo tation</w>
quer y</w>
qu ellen</w>
qu ellen
pu ts</w>
produ ktion</w>
pro of</w>
pro of
pro fil
pri mä
pri mary</w>
presen tation</w>
preci sely</w>
prece den
preceden ce</w>
position ing</w>
pers ön
pe ople</w>
parti cu
particu lar
particular ly</w>
par t
pa ir</w>
p ush</w>
over view</w>
organ ized</w>
ord nungs
ord ingly</w>
or der
on CuePoint</w>
ol or</w>
ol e</w>
ol der</w>
ok us
oben -</w>
o val</w>
nutz t</w>
nologi en</w>
no thing</w>
niedrig eren</w>
neu tral</w>
nam ing</w>
nach zeichnen</w>
nach einander</w>
n ment</w>
mini aturen</w>
mehr mals</w>
medi um</w>
mark ierungen</w>
m in</w>
lö scht</w>
lu s</w>
local-with-files ystem</w>
local-with- networking</w>
lik ely</w>
len g
l d
kö mm
kont inu
komprim ierte</w>
kompatib len</w>
kenn zeichnen</w>
kenn wort</w>
kategor ie</w>
iz ard</w>
ite x</w>
it ors</w>
intu i
inter ru
instal ler</w>
instal lation</w>
inn ing</w>
initi ator</w>
index es</w>
in ge</w>
in ches</w>
implemen tiert</w>
ign ore</w>
ie fert</w>
hö chste</w>
her kömm
help ful</w>
hand lers</w>
han g</w>
hal t
h en-
h ed</w>
gs bedienfeld</w>
gli e
gewähl ten</w>
gesperr ten</w>
geschütz te</w>
gemein sam
gelei tet</w>
geeig neten</w>
geeig nete</w>
ge hen
gam ut</w>
g -</w>
frei ge
forder ungen</w>
for ce</w>
fo ur-
fließ t</w>
fin ds</w>
fe a
fam ily</w>
f ar</w>
exak t</w>
est ing</w>
erweiter ung</w>
err eichen</w>
erlau ben</w>
erkenn ung</w>
er ungen</w>
er es</w>
er ben</w>
entr ä
encryp t</w>
en ters</w>
en ough</w>
en hance</w>
ele gt</w>
einzu schränken</w>
einzu schließen</w>
ein tritt</w>
ein gebunden
eigenständi gen</w>
e very
e o</w>
e g</w>
e g
durch laufen</w>
drop- down</w>
do mains</w>
divi ded</w>
divi de</w>
disc ar
direc tories</w>
di ameter</w>
dep loy
de faul
d Mode
custom ized</w>
cu m
conven ient</w>
conn ects</w>
con tour</w>
con sult</w>
con cep
compre ssing</w>
commen ting</w>
colla bor
co unter
co un
co ding</w>
clas spath</w>
clas sic</w>
ck t</w>
cir cles</w>
cherh eit</w>
ch ar
cap tions</w>
cach ing</w>
ca sts</w>
bul lets</w>
bo gen</w>
bli ch</w>
belie b
bel ong</w>
befeh l</w>
be zeichner</w>
be trägt</w>
be folgen</w>
be endet</w>
be ds</w>
be achten</w>
ausgeblende te</w>
ausge geben</w>
au se
ate st</w>
at ch-
assign s</w>
as sem
anwei sungen</w>
angewende ten</w>
an ten</w>
an te</w>
alphanum eri
alle st</w>
aktiv ierter</w>
ah len
ad resse</w>
accep ts</w>
abhängi gen</w>
abge schnitten</w>
ab ung</w>
ab legen</w>
a sp
Zusatzmodu l</w>
Zeit leisten
Zeichen folgen</w>
Z wei
Z ahlen
Z -
XML- Dateien</w>
XM P-
XFL -Datei</w>
Work space</w>
Weich zeichnen</w>
Web-Foto galerie</w>
W izard</w>
Vor gabe
Veröffentlich ungs
Verw altung</w>
Verknüpfungen bedienfelds</w>
Ver trau
Vektor grafik</w>
Vektor daten</w>
Um wand
Um fasst</w>
Tri angles</w>
TouchUp- Lesericht
Top ic</w>
Tool bars</w>
Tit le</w>
Tim er
Texte ditor</w>
Text fluss</w>
Text Format</w>
Templ ates</w>
Tastaturbefehlss atz</w>
Ta gsbedienfeld</w>
Ta gged</w>
Syn tax
Sym me
Sucher gebnisse</w>
Su per
Stilei genschaften</w>
Stich wort</w>
Steu ert</w>
Speci al</w>
Sp lit</w>
Sp ie
Sound daten</w>
Sortier reihenfolge</w>
So bald</w>
Sli der</w>
Skrip t
Skele tts</w>
Simil arly</w>
Sign ieren</w>
Seiten layout</w>
Seiten lay
Se arches</w>
Scrip ting</w>
Schär fen</w>
Schri ftfamilie</w>
Schn ell</w>
Schließ lich</w>
Sch ar
Scan nen</w>
Sc itex</w>
Satz zeichen</w>
SW F-</w>
S wit
S T
S FTP</w>
Rol len
Ren dern</w>
Ren der</w>
Rel ie
Rel ative</w>
Rec olor</w>
Re mote</w>
Re geln</w>
RT MP</w>
RGB- Bilder</w>
RGB -</w>
R ek
Querver weis
Quell dateien</w>
QuarkX Press</w>
Prüf ungen</w>
Präsen tation</w>
Programmier er</w>
Preflight- Profile</w>
Power Point</w>
Popup- Bedienfeld</w>
Polyg one</w>
Po sen
Pixel- Seitenverhältnis</w>
Pixel auswahl</w>
Photomer ge</w>
Per form
Pathfin der</w>
P ort</w>
P lan
P C
Original bild</w>
Objektzeich nungs
Nummer ierungs
NumericStepper- Komponente</w>
Number ing</w>
Noti ce</w>
Net Stream</w>
Na v</w>
Muster seiten
Movieclip- Symbol</w>
Misch druck
Mes h</w>
Matrix 3D</w>
Materi alien</w>
Mal gruppen</w>
Ma in
MPE G-
MO V</w>
M eine</w>
Loc ate</w>
Lo cation</w>
Lerninterak tionen</w>
Lein wand
Lauf weite</w>
Lade vorgang</w>
Lab -
L ücken</w>
K uler</w>
J IS</w>
Internetadre sse</w>
Instal lationsprogramm</w>
Indic ates</w>
Indi zes</w>
In- RIP</w>
In dent</w>
I tems</w>
I st</w>
I M</w>
Hyperlink s
Histogram m
Hintergr undebene</w>
Hell o</w>
HTML- Dokument</w>
Gree ting
Grap h</w>
Git ter</w>
Ge o
GI F-
G lätten</w>
G lan
Fuß zeilen</w>
Funktion alität</w>
Fort schritt</w>
Fort schritt
Forma tierungs
Fol low</w>
Fol ders</w>
Fo o
Fireworks- Dokument</w>
Feh lern</w>
Farb über
Farb umfang</w>
Farb separ
Farb regler</w>
Farb gruppen</w>
Fa st</w>
F I
Ex posure</w>
Era ser</w>
Entwurf s</w>
Ellip sen
Einzel ne</w>
E-Mail- Adressen</w>
E very</w>
E sc</w>
E dges</w>
E R</w>
Drucker ei</w>
Drei ecke</w>
Dra ht
Dokumen t-
Digim arc</w>
Dialog feldern</w>
Defaul ts</w>
De aktiviert</w>
Datein amen
Datei -
D one</w>
Custom ize</w>
Conver ting</w>
Connec t-
Con tains</w>
Compo site-
Comp onent
Comp ati
Colum ns</w>
Chin ese</w>
Chan nel
Bro sch
Bri d
Br enn
Blenden fl
Bin de
Bild sequenz</w>
Bild größe</w>
Bild bearbeitung</w>
Bibliotheksele mente</w>
Benutzer interak
Ben der-
Be vel
Bar code-
B rüche</w>
B lau
Automati cally</w>
Authoring- Umgebung</w>
Ausgabe optionen</w>
Aus sehen
Au st
Arbeitsab läufe</w>
Arbeits bereichs</w>
An passung</w>
An other</w>
An ders</w>
Allgem eine</w>
Al tern
Adobe- Farbwähler</w>
ActionScript- Datei</w>
Absatz bedienfelds</w>
Ab legen</w>
Ab lauf
Ab brechen</w>
7 0</w>
4 0</w>
32 -
1 3</w>
1 .</w>
0, 0</w>
-B y
- Website</w>
- Liste</w>
ür fen</w>
über nimmt</w>
über drucken</w>
äu ß
Übergang sp
zw ingen</w>
zusätz lich</w>
zugewies enen</w>
zu zulassen</w>
zeich n
ze dur
yp s</w>
wur f</w>
wri tes</w>
word- processing</w>
wir k
we st</w>
war p</w>
w all</w>
w .</w>
vorzu heben</w>
vorge sehen</w>
vor gänge</w>
verzerr en</w>
verfüg bare</w>
veranker te</w>
ver werfen</w>
ver wendung</w>
ver weist</w>
ver sehen
ver hält</w>
ver blei
v on
von einander</w>
v iert</w>
unter brechen</w>
unsepar ierten</w>
ungse bene</w>
ungs datei</w>
ung ül
ung werkzeug</w>
un like</w>
un iz
umgeke hr
u .</w>
tz eichen</w>
tu p
tri ggers</w>
tri angles</w>
tion ing</w>
ti me-
ti ally</w>
ther e
th in</w>
teil ungen</w>
te fak
te am</w>
tab let</w>
ta tion
ta king</w>
t lich</w>
t es
t ells</w>
sä tti
super class</w>
success ful</w>
sub mit</w>
su ch
sty lus</w>
str eichen</w>
st ör
st a</w>
spro to
speich erung</w>
speich er
spal te</w>
sp richt</w>
so on</w>
so ft
sna pshot</w>
slas h</w>
sklas se</w>
sign iert</w>
si x</w>
si ting</w>
si cherheit</w>
shar p</w>
sh and
shand buch</w>
set Size</w>
separ ates</w>
sek unden</w>
search ing</w>
se tter</w>
se en</w>
schrie bene</w>
schlä gt</w>
satur ated</w>
s ort
s leiste</w>
s hin
s RGB</w>
run s</w>
ru s</w>
ro o
ro chen</w>
repor ts</w>
render er</w>
rel y</w>
register ed</w>
regi stry</w>
recogni zed</w>
rechteck ige</w>
re ten</w>
re tains</w>
re sol
re shape</w>
re sampling</w>
re produce</w>
re open</w>
re member</w>
re flow</w>
re arrange</w>
rati os</w>
raster ize</w>
ra i
ques tion</w>
progressi ve</w>
programm ers</w>
produ cing</w>
proces ses</w>
preser ving</w>
presen ts</w>
pre views</w>
posi tiven</w>
po st
pl atz</w>
perspektivi schen</w>
person al</w>
p ter</w>
p fade</w>
p ed</w>
p adding</w>
osi tionen</w>
oriz ed</w>
or ität</w>
or am
optim ized</w>
oppo site</w>
on e.
om men
oku -
objec t-
ob tain</w>
o sity</w>
näh er</w>
nummer ierung</w>
non printing</w>
nologi es</w>
no ten
niedri gen</w>
nach folgenden</w>
mod elle</w>
mobil en</w>
mel dungs
meldungs leiste</w>
mel det</w>
mel den</w>
medi ate</w>
me shes</w>
mati c</w>
mathemati cal</w>
mask ierte</w>
mask en
man zeige</w>
maintain ed</w>
ma genta</w>
m iere</w>
lä ufen</w>
logi sche</w>
load PolicyFile</w>
lo y</w>
li n</w>
les bar</w>
lay er
kur zen</w>
krü m
krei s
konver tierten</w>
kontinu ier
kompati ble</w>
komp lex</w>
komp i
kompi liert</w>
komm uniz
kenn ung</w>
ke tte</w>
k ind</w>
japan ischen</w>
it e-
invol ve</w>
interac tivity</w>
intensi ve</w>
integri eren</w>
inform ieren</w>
indi zierten</w>
in valid</w>
in nen</w>
in it
in den
impro ves</w>
impor ts</w>
ih m</w>
ig keiten</w>
ier e
identifi ziert</w>
identifi es</w>
i ter
häufig sten</w>
hyper links</w>
ht m</w>
hr schein
hinzu gefügte</w>
hierarch ical</w>
her vorzuheben</w>
her aus</w>
hel lt</w>
han ced</w>
ha pter</w>
h ei
gro ß
gi ts</w>
gh ten</w>
get Area</w>
gest ap
genutz t</w>
gel assen</w>
ge messen</w>
ge k
ge glättet</w>
ga in</w>
g ne
forder ung</w>
for tfahren</w>
for mul
foo ters</w>
flexi bility</w>
flash.display .
fin e</w>
figuri eren</w>
figura tions</w>
ff ern</w>
fac ing</w>
f ein
f ect</w>
execu tes</w>
exam ine</w>
esau rus</w>
er ster</w>
er he
er gibt</w>
er bung</w>
equival ents</w>
entwick elt</w>
ent wurf</w>
ent stehen</w>
ent sch
encryp tion</w>
enco unter</w>
en tifi
en kreu
en code</w>
en closure</w>
emp ha
elli gen
ele bene</w>
el ectronic</w>
einzu richten</w>
einzel ner</w>
einge gebenen</w>
einfa ches</w>
eindeu tige</w>
ein schränken</w>
ein s</w>
ein gaben</w>
ein ander
ei le</w>
ei dung</w>
eff ek
e asing</w>
dri tte</w>
draw ings</w>
dimension al</w>
dialog feld</w>
di d</w>
dev net</w>
del im
defaul ts</w>
debu gger</w>
das selbe</w>
dar auf
da y</w>
d ürfen</w>
d rop
d one</w>
cross- references</w>
cro pped</w>
continu ously</w>
contain ers</w>
cont rolling</w>
conn ecting</w>
conflic t</w>
con figurations</w>
con c
compo sition</w>
comple tes</w>
compil ed</w>
comp s</w>
commer cial</w>
com p</w>
code c</w>
clo ses</w>
ck ed</w>
cir cular</w>
chec ken</w>
ch en-
cap tioning</w>
cap abilities</w>
cach ed</w>
c ertified</w>
by tes</w>
by tecode</w>
butt on
brau chen</w>
bran ch</w>
boo th</w>
bil den</w>
bereit zustellen</w>
ber ücksichtigen</w>
benan nten</w>
benachbar ten</w>
beein trächti
be wa
be ha
be bene</w>
back gro
b ü
b um</w>
b pc</w>
auß en</w>
auto Key
auth enti
aust auschen</w>
aus o</w>
aus löst</w>
auf zeichnen</w>
auf tritt</w>
auf einander</w>
attemp ts</w>
attach ments</w>
ati s
at al
applic ation
an passung</w>
am ed</w>
ali c</w>
algorith m</w>
al tet</w>
al tering</w>
al ing</w>
aktualisi erten</w>
add Child</w>
ad enkreu
activ ation</w>
accel eration</w>
ac ts</w>
ab zurufen</w>
a st
Zusammen führen</w>
Zurück setzen</w>
Zoom -
Ziel ordner</w>
Zeitst empel
Zeich nungen</w>
Zauber stab
Z I
XML- Objekt</w>
Work ben
Word -</w>
With out</w>
Wieder verwendung</w>
Wi ki
WebDA V-
We bebene</w>
Wahl -</w>
WA R</w>
WA R-Datei</w>
W ri
W ink
Vorschau -Bedienfeld</w>
Visu al</w>
Video- Lehr
Vi sta</w>
Verzerr ung</w>
Ver meiden</w>
V ol
V ar
Unter schreiben</w>
Unter nehmen</w>
URLLoader .
U S</w>
Tween- Ebene</w>
Tur ns</w>
Tru e
Trenn zeichen</w>
Track backs</w>
Tool k
Tonwert korrektur</w>
Tonwert bereich</w>
Toler anz
To ken</w>
Titel leiste</w>
The men
Textur map</w>
TextInput- Komponente</w>
Text -
Teilauswahl werkzeug</w>
Tab les</w>
T wo</w>
T el
T LA
TLA B</w>
Syst emen</w>
Sty le
Stift werkzeug</w>
Stich wörter</w>
Standard verhalten</w>
Stage Display
St rai
Spri te
Sper ren</w>
Sper r
Spe zifi
Spe zial
Spac ing</w>
Sp ectrum</w>
SoundMix er.
Sound booth</w>
Sound Fac
Sound Channel
Snipp et</w>
Smart filter</w>
Skal ier
Sk in
Shortcu t</w>
Share d
Ser vices</w>
Separa tions
Sel ective</w>
Seitenlay out
Scroll Pan
Schräg strich</w>
Schieberegl ers</w>
S tern
S ome
S ke
S ign</w>
S and
S ame</w>
S H
S A
Rul ers</w>
Ro w</w>
Richt ungs
Registri erungs
Redu zieren</w>
Rec or
Re st</w>
Re ad</w>
RS A</w>
R u
QuickBook s-
Quick Info
Quell bild</w>
Qu ick</w>
Prozess farbe</w>
Proj ekt
Programm ing</w>
Profil en</w>
Pre v
Pre miere</w>
Popup- Menüs</w>
Pl atz</w>
Pinsel strich
Pinsel bedienfeld</w>
Pfad segmente</w>
Perform ance</w>
PDF- Vorgaben</w>
PDF- Einstellungen</w>
P ing-
P hoto</w>
P O
Over ri
Out lines</w>
On 2</w>
Office- Dokument</w>
OC R</w>
O val</w>
O der</w>
O R
Nutz ung</w>
No w</w>
News Wire</w>
Neu en</w>
Net z</w>
Net NewsWire</w>
Ne sted</w>
Ne ga
Nach- unten-Taste</w>
Nach- oben-</w>
N eigung</w>
N -
Mögli cherweise</w>
Must ers</w>
Multimedi a-
Mo jikum
Mittel töne</w>
Misch modus</w>
Minim um</w>
Microph one.
Metho den
Meta Web
Menü leiste</w>
MP LE
MPLE TE</w>
MA TLAB</w>
Lok ale</w>
Linien segmente</w>
Lich tern</w>
Li ke</w>
Le g
Lau t
Lar ger</w>
Lar ge</w>
Krei s
Koordin ate</w>
Kontur attribute</w>
Kon to</w>
Kon figurieren</w>
Komponenten- Referenzhandbuch.</w>
Kompatibili täts
Kombin ations
Kins oku-
Kenn wörter</w>
Kar te</w>
K riterien</w>
K ern
Java -
JDF- Auftragsdefinitionen</w>
Inser ts</w>
Indi vidu
In ten
In corporated</w>
I K
I E
Hül le</w>
Hö here</w>
Hot spots</w>
Horiz ontal</w>
Home Site</w>
High light</w>
Hea der</w>
HTML- Codefrag
H äu
H ome</w>
Größ en</w>
Griff linien</w>
Gree ter</w>
Graustu fen-
Grafik stile</w>
Glü hen-
Glyp h</w>
Genehm igung</w>
Ge wi
G low</w>
G allery</w>
G B</w>
Fü hr
Fuß noten
Full Screen
Frank lin</w>
Fol ie</w>
Fo col
Fir men
FileReferen ce-
File Reference</w>
Farbfeld bibliothek</w>
Farbfeld bedienfelds</w>
Farb ei
Farb auswahl</w>
Farb auf
FLVPlaybackCaption ing-
FLV -
FD F-Datei</w>
F oli
F lag</w>
F atal
F as
F adenkreu
F MS</w>
Export einstellungen</w>
Expor ting</w>
Ex c
Ex ample</w>
Erzeu gt</w>
Er stellungs
Engli sh</w>
Embed ded</w>
El ectronic</w>
Ein stellungs
E mail</w>
E N
Druckfarben verwaltung</w>
Drucker einstellungen</w>
Druck produktion</w>
Druck -</w>
Dropdown -Liste</w>
Dra w</w>
Dra ft</w>
Doppel punkt</w>
Dokument meldungsleiste</w>
Dist ribute</w>
Display Object-Klasse</w>
Direc tion</w>
Dialog felder</w>
Di chte</w>
Deskt op-
Deskt op
Dek lar
Defini tions</w>
Daten punkte</w>
Dat e-
DT D</w>
DICO M</w>
D V
Control ler</w>
Contribute- Hilfe</w>
Contribute- Editor</w>
Compo ser</w>
Comm and-
Cir cle</w>
Cal l
CO MPLETE</w>
CH AN
CHAN G
C ine
C hapter</w>
C amer
C D</w>
Blen dMode
BitmapData -Objekt</w>
Bitmap bilder</w>
Bitmap bild</w>
Bildschirmleseprogram m</w>
Bildschir manzeige</w>
Bild bereich</w>
Bil de
Ber ücksichtigen</w>
Benutz er-
Ben ennen</w>
Ben ach
Be schnitt
Basi s</w>
Basi c</w>
Bar code</w>
B lat
Auswahl -</w>
Aussehen- Attribute</w>
Aus spar
Aus lö
Aufgaben datei</w>
Aufgaben bedienfeld</w>
Attribu tes</w>
Asp ekte</w>
Array- Klasse</w>
Arbeit sp
Ar tefak
Anzeigel eistung</w>
Angleich ungsfarbe</w>
Anfang spunkt</w>
Anfang s-</w>
An d
Ach sen
Ab sätzen</w>
AI -
9- teiligen</w>
9- slice</w>
9 .0</w>
8 8</w>
6 .0</w>
32- bit</w>
3.0- Komponenten-Referenzhandbuch.</w>
3 5
28 80</w>
2 6</w>
2 50</w>
2 16-
2 0
10 2
1. htm</w>
1 8</w>
1 000</w>
1 00
1 ,
0 x
.j ob
. describe</w>
- Objekte</w>
- Eigenschaften</w>
ücksichti gt</w>
überlapp t</w>
übereinstimmen den</w>
äl fte</w>
ß t</w>
Übersatz text</w>
Über schrift
Über blen
Über b
Überb lick</w>
zu ordnung</w>
zier er</w>
zertifi zieren</w>
zeich nungs
z t</w>
z ent
x imal</w>
wi ssen</w>
wh ole</w>
weich zeichnen</w>
wei ß
wei l</w>
websich eren</w>
visi tors</w>
visi tor</w>
viel es</w>
veröffent li
veröffentli chten</w>
vertrauenswür digen</w>
verschlüssel n</w>
verkett et</w>
verbesser t</w>
ver zeichnis
ver wend
ver lassen</w>
var ying</w>
v oc
us w.</w>
us s
unter strichen</w>
unter e</w>
ungsp unkte</w>
ungse ffekt</w>
ungs option</w>
un sichtbare</w>
un selected</w>
un named</w>
umzu kehren</w>
umzu benennen</w>
umge benden</w>
um geb
um eration</w>
tz te</w>
twi ce</w>
tu sch
tu de</w>
tri gger
tri ff
triff t</w>
tri ev
transform iert</w>
tou ch</w>
tor y-
to ken</w>
to ggle</w>
tier tes</w>
tie f
ti ger</w>
ti es
them sel
themsel ves</w>
tempor äre</w>
tab elle</w>
tab Index</w>
substitu te</w>
su ffix</w>
struc tured</w>
str eich
str ators</w>
steuer ungen</w>
steh enden</w>
ss kal
spä tere</w>
sp li
some thing</w>
snapp ing</w>
sm allest</w>
siz ed</w>
sicher gestellt</w>
sich ere</w>
sho w
sh -
sequ enz
sei tigen</w>
seg men
sec u
se mi
schnei det</w>
schar f</w>
schaltflä che</w>
sch ä
scan nen</w>
sc ore</w>
s- Objekt</w>
s tive</w>
s low</w>
s k</w>
s ect</w>
s atis
s and
sand boxes</w>
rob le
reve al</w>
respon ds</w>
res ume</w>
registri ert</w>
realisti c</w>
reag ieren</w>
re triev
re do</w>
ran sparen
ran dom
rah men
ra stern</w>
ra gen</w>
r au
r ates</w>
proto col</w>
pre viewing</w>
pre par
pre ferred</w>
plan es</w>
photo graphs</w>
pha se</w>
perform ing</w>
per- channel</w>
per pen
perpen di
perpendi cular</w>
pass words</w>
pa ired</w>
p alett
ou ter</w>
ou t-
ou d</w>
organ isiert</w>
oram a</w>
or i</w>
optim iert</w>
o tone</w>
o gni
nummer ierte</w>
nolog ie</w>
niedri ger</w>
nich ts</w>
new ly</w>
ne ws</w>
ne tes</w>
ne beneinander</w>
n ore</w>
n eigen</w>
möglich st</w>
multi media</w>
multi -
mod us-
mo date</w>
mis matches</w>
mi kol
mer werkzeug</w>
men skon
maxim alen</w>
materi als</w>
masken miniatur</w>
mark up</w>
man age
ma ßen</w>
ma ß</w>
ma ximal</w>
ma pped</w>
low- resolution</w>
loss less</w>
lin king</w>
licen se</w>
li erten</w>
leisten bereich</w>
leg acy</w>
le ted</w>
le bene</w>
las s</w>
langsam er</w>
kör per</w>
kur ze</w>
kop ierte</w>
konsi stent</w>
kompili eren</w>
kommuniz ieren</w>
klein ere</w>
kan te</w>
k b
k ationen</w>
j a
ja gged</w>
invok ed</w>
intui tive</w>
interpre tiert</w>
interpol ation</w>
inter vals</w>
inter mediate</w>
inte ger</w>
instanti ate</w>
inn eren</w>
initi ally</w>
indic ator</w>
incre ment</w>
in- browser</w>
in vi
illu str
il fe
il ater
ignor es</w>
identi sche</w>
ide a</w>
i or</w>
i ce</w>
i bili
ibili tät</w>
hält nisse</w>
hot spot</w>
hol e</w>
hoch auflö
ho her</w>
ho he</w>
hin ter
hell ere</w>
harmon y</w>
handh abung</w>
hal o</w>
h nt</w>
h ellen</w>
gül tig</w>
griff en</w>
gradu ally</w>
gli ch
gi f</w>
gh ts</w>
gewäh r
getagg te</w>
gest alten</w>
generi c</w>
genau en</w>
gen auso</w>
gel an
ge stellte</w>
ge mi
ga ps</w>
g ern</w>
fäh igen</w>
funk tions
fra gt</w>
form t</w>
fo cal</w>
fli p</w>
fin e-
festzu stellen</w>
fehlen den</w>
fe ster</w>
fe sten</w>
fal l
fak tor</w>
fa ches</w>
f ree</w>
extrah ieren</w>
expir y</w>
exper ience</w>
ex posure</w>
ex panded</w>
ex is
ex e</w>
ex ce
erwar ten</w>
erleich tert</w>
erleich tern</w>
er- based</w>
equ als</w>
entwick eln</w>
enträ ger</w>
ent werfen</w>
enco unter
en- Manager</w>
en gine</w>
emp loye
einzu betten</w>
einge schrän
ein heit</w>
ein gefügten</w>
ein gefügte</w>
eigenständi ge</w>
eff ective</w>
eck igen</w>
druck bare</w>
down sampling</w>
distrac tors</w>
distingui sh</w>
diff er</w>
dic tion
di tion</w>
di t</w>
di er
develop ment</w>
deta illierte</w>
det ects</w>
design ers</w>
descrip tor</w>
den sity</w>
decre asing</w>
deci de</w>
de struc
de show</w>
data Provider</w>
darauf hin</w>
dar aus</w>
d f</w>
d aher</w>
cy an</w>
compu ters</w>
comp ar
combin ations</w>
com modate</w>
com es</w>
col or
clo ser</w>
ck s</w>
cir cum
ch sten</w>
calcul ated</w>
ca p</w>
bul let</w>
bro ken</w>
bro ad
bri e
break points</w>
br ingen</w>
br ing</w>
br eiten</w>
box en</w>
bo und</w>
bla u</w>
betra chtet</w>
beschleun igen</w>
ber ü
benutzerdefin iertes</w>
benutz er
beeinflus st</w>
be schrift
back ward</w>
b rech
b löcke</w>
b lättern</w>
b all</w>
auto -
auth ors</w>
aus gefüllt</w>
aufge hellt</w>
auf zurufen</w>
auf grund</w>
auf b
au tom
at te</w>
applic able</w>
anzu ordnen</w>
anim iert</w>
angewende te</w>
ange halten</w>
ang le
anch ors</w>
anch mal</w>
alisi eren</w>
align s</w>
aler ie
al though</w>
al lowing</w>
al arm</w>
aktualisi erte</w>
aktiv ierten</w>
ak tionen</w>
ad mini
ad line</w>
acces sing</w>
acces sed</w>
acc ordingly</w>
ac compli
ac commodate</w>
abge dunkelt</w>
ab rufen</w>
ab gerunde
a verage</w>
a siatische</w>
a ir</w>
Zur ück</w>
Zellen formate</w>
Zeitst empel</w>
Zeilen höhe</w>
Zeilen ab
Zeich net</w>
Zei gers</w>
Z entri
XML- Tags</w>
XML List
Wieder herstellen</w>
Whe el</w>
Werkzeug leistenbereich</w>
Wei ter
Web site
Web server-
Web adresse</w>
W here</w>
Vorgab en-Manager</w>
Vor gänge</w>
Video eigenschaften</w>
Verzerr ungen</w>
Verw alt
Verlaufs bedienfeld</w>
Ver schacht
Ver sch
Ver ring
Ver lu
Ver knüp
Ver klein
Vektor objekte</w>
Vali d</w>
Urspr ung</w>
Up dates</w>
Unter schrift
Unter neh
Umri ss</w>
UNI X</w>
Tur n</w>
Tran sparent</w>
Track back-
TouchUp-Lesericht ungwerkzeug</w>
Toler ance</w>
Th reshold</w>
Textab schnitts</w>
TextArea -Komponente</w>
Text feldern</w>
Text attribute</w>
Tasten kombinationen</w>
Tag- Struktur</w>
Ta sten</w>
Ta g
Swit ch</w>
Sum mary</w>
Stream ing-
St ör
Speicheror ten</w>
Sp ine</w>
Sp elling</w>
Sp ace</w>
Some times</w>
Soft ware
Slice- Optionen</w>
Sit es</w>
Simu liert</w>
Sim pli
Sim ple</w>
Si cher
Sequ ence</w>
Sel ektive</w>
Seitenüber gänge</w>
Seiten miniaturen</w>
Seiten anzeige</w>
Se mikol
Scroll Bar</w>
Schnitt maske</w>
Schar f
Schaltflächen symbole</w>
Sch w
Sand boxen</w>
SW C
S can</w>
S atelli
S a
S MS</w>
S M
Rollo ver-
Rek on
Regular Polygon</w>
Referenz punkt</w>
Redu ces</w>
Redu ce</w>
Rec ogni
Re par
Re fresh</w>
Re chte</w>
RGB- Bild</w>
QuickInfo s</w>
Quer schnitt</w>
Qu o
Proj ekten</w>
Program men</w>
Position ierungswerkzeug</w>
Poin ter</w>
Pfeil taste</w>
Pfade bedienfelds</w>
Persp ective</w>
PSD- Dateien</w>
PO S
PNG- Format</w>
PIC T
PDF- Seite</w>
Over lay</w>
Organ isieren</w>
Options feld</w>
OpenType- Schrift</w>
Objekt stil</w>
O thers</w>
Nutz en</w>
No t</w>
Muster pinsel</w>
Multi ple
Mu sik
Mit arbei
Mischdruck farben-
Milli sekunden</w>
Metho d</w>
Meta daten-
Mes sproto
Mes hes</w>
Men ge</w>
Me hr</w>
Materi als</w>
Master seite</w>
Mar quee</w>
M anchmal</w>
Les er</w>
Lerninterak tion</w>
Le gende</w>
L ens</w>
L E-
Kur si
Kor rig
Kopier quellen
Kont ra
Kombinations feld</w>
Kapit el
Kanä len</w>
Kan als</w>
K lon
K inemati
JPEG- Format</w>
Int ro
Index marken</w>
Index bedienfeld</w>
In- Browser
In-Browser -Editor</w>
In dem</w>
Ig nore</w>
IPv 6</w>
IC C-
Häu fig</w>
Hyperlink text</w>
Ho t</w>
Harmon iere
Hard ware
H.26 4</w>
H älfte</w>
Gül tige</w>
Grupp ierung</w>
Gri ds</w>
Grafik stil</w>
Grafik dateien</w>
Glyphen bedienfeld</w>
Gen au
GRE P-
Fuß zeile</w>
Frei geben</w>
Fortschritt sleiste</w>
Fo to</w>
Flex ibilität</w>
Flash-Authoring- Tool</w>
Film -
Fil ms</w>
Fig ure</w>
Fehler meldung</w>
Farbverlauf s</w>
Farbei merwerkzeug</w>
Farb tiefe</w>
Farb tabelle</w>
Farb profil</w>
Farb korrektur</w>
Fadenkreu z</w>
FLA -Dateien</w>
F ern
Event -Klasse</w>
Ev ents</w>
Error- Ausnahme</w>
Err ors</w>
Ergebnis farbe</w>
Ereignis objekts</w>
Ereigni sses</w>
Ereigni spro
En closure</w>
En capsulated</w>
En ab
Eing aben</w>
Ein satz</w>
Ein ge
Ein en</w>
Ein druck</w>
Eigenschaften kur
Ebenen eigenschaft</w>
Eben ennamen</w>
EPS -Datei</w>
E-Mail- Anwendung</w>
E qu
E mul
E cht
E R
E E</w>
Druck einstellungen</w>
Drawing Canvas</w>
Down loads</w>
Dokument struktur</w>
Do main
Dist ort</w>
DisplayObject Container</w>
Digit ale</w>
Di vision</w>
Di sc
Develop er</w>
Deta il
Dele ting</w>
De zimal
Datei system</w>
Data Provider</w>
Dat um
Da zu</w>
DX F</w>
Cur sors</w>
Cross- Reference</w>
Contin u
Cont ent-
Con tact</w>
Con figure</w>
Compil er-
Communit y-
Commun ic
Combo Box-Komponente</w>
Combin e</w>
Col l
Code c</w>
Code aus
Clip bo
Clas sic</w>
Camer a
CS 4-
CI T
CA D</w>
C er
C D-
C CIT
Buchstab en
Buch datei</w>
Brow sers</w>
Brosch ü
Brid ge-
Brenn weite</w>
Block satz</w>
Bewegungs- Editor</w>
Benutzerober flächen
Beleu cht
Bearbeit ungen</w>
Be schreibungen</w>
Be griff</w>
Bau st
Bat es-
Basi sklasse</w>
Barrierefrei heit</w>
B le
Av oid</w>
Aussehen bedienfeld</w>
Aus maß</w>
Aus führung</w>
Aus drucks</w>
Audio dateien</w>
As so
As Bitmap</w>
Artefak te</w>
Art board</w>
Archi v
Arbeit shandbuch</w>
Ar ti
Anzeige einstellungen</w>
Anti-Ali as</w>
Anker punkten</w>
Anim ieren</w>
Alpha -
Ak tion
Ad dre
ActionScript- Dateien</w>
Absatz format
Abhän gig</w>
Ab ständen</w>
Ab len
AI C
9 ,
4 00</w>
3D- Raum</w>
3 5</w>
2.0- Referenzhandbuch.</w>
1 3
. as
. S
- Pinsel</w>
über prüf
öffent lichen</w>
ä nen</w>
Überlapp ung</w>
Überlager ung</w>
Überfüllungsvor gabe</w>
Über tra
Über sicht</w>
Über prü
Überprü fern</w>
Über eins
Übereins timm
Ü ber</w>
zw ecken</w>
zurück gesetzt</w>
zufäl lig</w>
zu zeichnen</w>
zu laden</w>
zu geordnete</w>
zi er</w>
zer stör
z ählen</w>
yp hen
y si
y mo
y e
xim ity</w>
x p</w>
wür den</w>
wör tern</w>
www. w
www.w 3.
www.w3. org</w>
www. acrob
www.acrob atus
www.acrobatus er
www.acrobatuser s
www.acrobatusers .com</w>
wor den</w>
wie bel
wiebel sch
wi r</w>
wes ent
wer tet</w>
wer k</w>
wel chen</w>
weich en</w>
websich ere</w>
web- safe</w>
we d
wav 1.
wav1. mp3</w>
w äre</w>
w le
w a</w>
vor schau
vor gangs</w>
voc ation</w>
visu ellen</w>
vie wers</w>
vid02 00</w>
vid02 0
vid020 7</w>
vid00 67</w>
vid00 3
vid0 19
vid0 1
verwand te</w>
verwal teten</w>
verursa chen</w>
vertik alem</w>
verschacht elt</w>
verl än
verbin dungen</w>
ver wi
ver fahren</w>
ver arbeit
ven tion</w>
vel op</w>
vari ance</w>
validat e
user- defined</w>
urit y
updat ing</w>
updat e
up -
unterschie den</w>
unter schreiben</w>
unter bro
unterbro chen</w>
ungsp fade</w>
ung er
unerwar teten</w>
under ne
underne ath</w>
under lined</w>
un tagged</w>
un locked</w>
un changed</w>
un available</w>
un auth
unauth orized</w>
umge hen</w>
um schließt</w>
u lt</w>
u ke
uke box</w>
u do
twe enen</w>
tur es</w>
tu p-
tro om</w>
tra de
tit eln</w>
tig keits
ti schen</w>
there fore</w>
th re
thre e-
text ure
text -
tech nologies</w>
te Spectrum</w>
tatsäch liche</w>
tal li
ta ssi
t- select</w>
t- Eigenschaft</w>
t y-
t xt</w>
t ints</w>
t ch</w>
syst em
synchron ous</w>
sym bo
symbo li
symboli sm</w>
supp li
suppli ed</w>
super script</w>
su it
strukturi ert</w>
stre ckt</w>
stor ing</w>
sti lebedienfeld</w>
stam ps</w>
st ypen</w>
st empel</w>
st ar</w>
st ands</w>
ssym bol
spra ch
sp ur</w>
sp ine</w>
sp ectrum</w>
sol chen</w>
so ft-
smoo thing</w>
slic ed</w>
skrip t</w>
sk i
simpli fy</w>
si erten</w>
shap ed</w>
ser ve</w>
sequenti al</w>
self- signed</w>
selec table</w>
sel ek
seg menten</w>
sec urity
se y</w>
se udo
se bene</w>
schrän kung</w>
schlüssel n</w>
schar f
sch ten</w>
sch te</w>
scale X</w>
sc -Taste</w>
s- per-channel</w>
s- Eigenschaft</w>
s mo
smo other</w>
s eit</w>
s atelli
rä ge</w>
ru ch
ro zen</w>
ro und
rip tor
rig gers</w>
rel oad</w>
rel i
regel mäßig</w>
re ver
re sides</w>
re side</w>
re geln</w>
ransparen z</w>
ran ging</w>
radi al</w>
ra gan
r and
quadrati schen</w>
qu ell
publi shes</w>
propor tion
program men</w>
pro per</w>
pro b
prin t
pri or</w>
pri mitive</w>
pra c
pp en</w>
po wer
platz halter</w>
pin sel
piec es</w>
peri o
par alle
paralle l</w>
pa ints</w>
pa ge
pa ar</w>
p s
p are</w>
over write</w>
organ iz
ordnungs gemäß</w>
object- oriented</w>
obj ektor
objektor ien
o f-
nö tig</w>
nummer iert</w>
nummer ieren</w>
num er
noti ce</w>
niedrig ere</w>
niedri g</w>
ni cht
neu n</w>
neu esten</w>
ne ar</w>
name spaces</w>
nach folgende</w>
n um</w>
n n
n ine</w>
n g</w>
möglich keiten</w>
my Quiz</w>
my Function</w>
mon itors</w>
mo ment
milli seconds</w>
meta characters</w>
mer ging</w>
mechanis m</w>
meas ures</w>
matri x
mark ups</w>
mar ke
man i
ma chine</w>
m il
m ali
m -
lä tter</w>
lrvid40 9
lrvid40 3
lrvid40 11</w>
lrvid4 12
lower- right</w>
lok al</w>
logi c</w>
lo west</w>
lo st</w>
list et</w>
ling ton</w>
line are</w>
lin g-
limi tations</w>
ligh ten
lich ter</w>
li erte</w>
leav ing</w>
le k
layer ed</w>
lay er-based</w>
lan gen</w>
la unch</w>
la tions
la ble</w>
l ungen</w>
l pi</w>
l eit
l atz</w>
l atest</w>
kont ra
ko dierung</w>
knock out</w>
kb 40
k riterien</w>
k lar</w>
k ins
kins oku</w>
k H
kH z</w>
jewei lige</w>
j ob
j i</w>
is Container
isContainer Ready</w>
ir e</w>
inter po
intensi v</w>
instanzi ieren</w>
initi ate</w>
initi alized</w>
ini sh</w>
in verse</w>
in put
in ner</w>
in it</w>
impor tassi
ima ge-
im pli
im paired</w>
ilater al
ilateral Tri
identi fiers</w>
i ded</w>
i cht
i -
hot spots</w>
hol ds</w>
hochwer tige</w>
hinzu gefügten</w>
hi ding</w>
he bt</w>
halt ung</w>
h n
grü ß
grü ne</w>
größ en</w>
gre at
great ly</w>
gram me</w>
gra digen</w>
go to
geänder ten</w>
gewähr leisten</w>
getween ten</w>
gerä te
geometri c</w>
gener ierte</w>
genau er</w>
gen -
gemeinsam es</w>
gelan gen</w>
gel iefert</w>
ge zeichnete</w>
ge m</w>
ge hostet</w>
ge dreh
ge da
g rün
g lätten</w>
fär bt</w>
freige gebenen</w>
fre eh
freeh and</w>
fra gen</w>
fr ont
forma tierten</w>
foot notes</w>
fl atten</w>
fl are</w>
fini shes</w>
fine- tun
fin er</w>
filter ing</w>
fil ling</w>
fiel d
fest legt</w>
fa ils</w>
fa ch
f rozen</w>
exten ded</w>
ext ent</w>
experi ment</w>
exp ands</w>
example 1</w>
example .
ex e
exe c</w>
every thing</w>
event uell</w>
ev al</w>
et wa</w>
establi sh</w>
es sen
es cap
escap e</w>
eri es</w>
er sey</w>
er geben</w>
ent ext</w>
end point</w>
en large</w>
ell ymo
ektr um</w>
eit komma
eit el
einzu beziehen</w>
eingebunden e</w>
effici ently</w>
eff ectively</w>
edi tors</w>
e valu
e ting</w>
e ste</w>
e sisch</w>
e ding</w>
e Book</w>
durch sucht</w>
durch läuft</w>
durch ge
drück t</w>
druck farben</w>
drop let</w>
dri vers</w>
dou ble-
distor ted</w>
distan ces</w>
display State</w>
dispat ched</w>
discus sion</w>
discar ded</w>
dis appears</w>
direc t-select</w>
differ ences</w>
diff ers</w>
diagon ally</w>
di ty</w>
di gits</w>
develop ed</w>
dep loy</w>
del ay</w>
deck ung</w>
deck end</w>
dec ken</w>
de velop</w>
de te</w>
de signer</w>
dat ein
dat ab
datab ase</w>
d Fu
dFu sion</w>
correc tions</w>
cont rol
consi sting</w>
consi st</w>
compu teSpectrum</w>
compre sses</w>
compo sed</w>
com mas</w>
color- managed</w>
col ons</w>
cli pped</w>
chst wert</w>
c atch</w>
c ards</w>
by- frame</w>
by tes
buffer ing
bit s-per-channel</w>
bil des</w>
bie ter</w>
besteh ende</w>
bereit stellt</w>
bereich s
bereich en</w>
ber ücksichtigt</w>
ber eiten</w>
bene fits</w>
bel on
behin der
begin Gradient
beginGradient Fill</w>
beding ungen</w>
be schriebenen</w>
barrierefrei en</w>
backgro unds</w>
back up</w>
b ing</w>
b ind</w>
autoKey Nav</w>
authenti cation</w>
ausge schnitten</w>
aus wirkt</w>
aus schneiden</w>
aus schließen</w>
aus r
aus lösen</w>
aus führ
aus es</w>
auf genommenen</w>
attribu ten</w>
ate .
at ür
ast eri
assign ing</w>
assi stive</w>
ard .
appropri ately</w>
appro xim
appro ved</w>
appear ing</w>
app end</w>
ange glich
ander nfalls</w>
an grenz
an forderungen</w>
am m</w>
alphabe tisch</w>
alphabe tically</w>
allow Net
allow Multiple
allowMultiple Selection</w>
ali ased</w>
al tered</w>
al ed</w>
al arm
aktiv es</w>
ad verti
ach se</w>
accur ately</w>
ac ci
absolu ten</w>
abili ties
ab sichti
ab le
ab lauf</w>
ab brechen</w>
a cht</w>
Zw eck</w>
Zustän den</w>
Zu fall
Ziel pfad</w>
Ziel instanz</w>
Ziel bild</w>
Zertifik aten</w>
Zeitstempel server</w>
Zeichen fenster</w>
Zauberstab -Werkzeug</w>
Z wiebelsch
Z er
Y O</w>
XML script</w>
XML Socket</w>
Word -Dokument</w>
Wir kung</w>
Werkzeug bedienfeld</w>
Wer tes</w>
Web hilfe</w>
W hat</w>
W 3
Vor sch
Vor hand
Viel faches</w>
Video importassi
Verzerr en</w>
Verschlüssel ungs
Verschie ben
Verring ern</w>
Verklein ern</w>
Ver zeichnis
Ver hin
Ver gleich</w>
Ver fol
Ver biegen</w>
Ver besser
Vektor objekt</w>
Vektor masken</w>
Vektor en</w>
V SS</w>
V -Datei</w>
Umwand lung</w>
Um wandeln</w>
Um rand
Um fließen</w>
UT F</w>
UT C</w>
URLRequ est</w>
URLRequ est
URL Loader</w>
UR I
Typ o
Tru st</w>
Transparenz -
Transforma tion
Track ing</w>
Tra ck</w>
Tra ce</w>
Toolk it</w>
Tie f
Thumbna il</w>
Th esaurus</w>
Textobj ekte</w>
Text verarbeitungs
Text ma
Tech nology</w>
Tabellen format</w>
TO YO</w>
TO N
T riggers</w>
T re
T ints</w>
T W
Symbol eigenschaften</w>
Supp or
Subtra ct</w>
Stu fe</w>
Strich s</w>
Strai ghten</w>
Str g-</w>
Str ength</w>
Stern chen</w>
Standard modus</w>
StageDisplay St
Stage .
Sta ck</w>
St andar
Squ are
Speicher platz</w>
Sp r
Sour ce
Sound Channel</w>
Socket- Klasse</w>
So wohl</w>
Skal en
Sk in-
Sign atures</w>
Shared Object
SharedObject .get
Shado w
Sha pe
Sh ori</w>
Sel ek
Seiten elemente</w>
Security. allowDomain</w>
Se tup-
ScrollPan e</w>
Script Access</w>
Schär fe</w>
Schwarzweiß bilder</w>
Schnappsch uss</w>
Schließ t</w>
Schatten s</w>
Schaltflächen eigenschaften</w>
Sch wär
Sch eitel
Sc roll</w>
SM I
SCOR M-
S wap</w>
S en
S C
Rückruf methoden</w>
Rück taste</w>
Rot ates</w>
Ro t-</w>
Resolu tion</w>
Render ing</w>
Render einstellungen</w>
Redu ziert</w>
Recht schreibung</w>
Rech ts</w>
Rec on
Rahmen kanten</w>
Radierg ummi
Ra w
RGB- Modus</w>
R und
R au
Querverweis formate</w>
Quell dokument</w>
Quell code</w>
Produ kten</w>
Pro ximity</w>
Pro portions</w>
Pro cess</w>
PrintJob. start</w>
PrintJob. send</w>
PrintJob. addPage</w>
Pri mitive</w>
Pre sen
PostScript- Drucker</w>
Por table</w>
Po d
Plu s</w>
Pixel wert</w>
Pinsel -</w>
Photoshop- Datei</w>
Pas ser
Par am</w>
Papier kor
Pap er</w>
Pa in
PSD- Datei</w>
PM I</w>
PDF- Portfoli
PDF- Formular</w>
P Is</w>
P H
P AN
PAN TON
P A
Out put
Organis ationen</w>
Optimierungs einstellungen</w>
OpenType- Schriftarten</w>
Objektzeichnungs modus</w>
Objek tiv
O f
O S-
O P</w>
Num mern</w>
Nor m
No de</w>
Navigations leiste</w>
Na menskon
Na N</w>
NT SC</w>
N ull
N ein</w>
N eigen</w>
N D</w>
MovieClip- Klasse</w>
Mouse Event.
MouseEvent. CL
MouseEvent.CL IC
Mon it
Mobil e</w>
Mix er</w>
Min uszeichen</w>
Mi kro
Mes sskal
Materi al</w>
Mas ks</w>
Mark ieren</w>
Mar ke</w>
Man u
Mal werkzeuge</w>
Mal werkzeug</w>
Mal t</w>
Ma x</w>
Ma th
Ma ps</w>
M y
M XML-
Lö st</w>
Lö scht</w>
Lö sch
Lä dt</w>
Local Connection</w>
Load Var
Lineal hilfslinien</w>
Ligh troom</w>
Licht quellen</w>
Li braries</w>
Lese zeichen
Leerr aum</w>
Le tzte</w>
Le t</w>
Lasso -Werkzeug</w>
Label -Komponente</w>
LDA P-
L up
L ength</w>
L Z
Krei se</w>
Konfigura tionen</w>
Kon zep
Kon sole</w>
Komp lex
Kombin iert</w>
Klas si
Kla mmer</w>
Kins oku</w>
Kinemati k</w>
Kar ten
Kach el
K no
K lic
K ein</w>
K atz
J o
J ersey</w>
J S
Interpol ation</w>
Internetadre ssen</w>
Interak tivität</w>
Inten ts</w>
Int ent</w>
Int el</w>
Inst all</w>
In-RIP- Separationen</w>
In vert</w>
In ner</w>
In n
Iden ti
IM E-
IK- Form</w>
IC C</w>
I mp
I Geometric
I G
I D-
Hö chstwert</w>
Hinter grün
He aling</w>
Halte punkte</w>
Halbton raster</w>
HTML- Editor</w>
HTML- Dateien</w>
H yphen
Gül tigkeits
Grün -</w>
Gruppen auswahl-Werkzeug</w>
Greeting s
Gree ter
Graphics.draw Triangles</w>
Grafik -</w>
Go Live</w>
Glü hen</w>
Glan z
Gl eitkomma
Gener ate</w>
G low
G em
G alerie
G PU</w>
G -Datei</w>
Fü hrt</w>
Free Hand
Formular s</w>
Formular feldern</w>
Focol tone</w>
Fo cus</w>
Fire fo
Filter Workben
Filter .html</w>
FileReference. upload</w>
Farb werten</w>
Farb modell</w>
Farb einstellungen</w>
FLVPlaybackCaptioning- Komponente</w>
F inish</w>
F X
F VSS</w>
F 6</w>
Exten sion</w>
Experi mentieren</w>
Exc el-
Ex tru
EventDispat cher</w>
Erstellungs datum</w>
Error Event.
Error -Klasse</w>
Er neut</w>
Equ ilateralTri
Ent spricht</w>
En velope</w>
En gine</w>
En ables</w>
Embed ding</w>
Ellip sen</w>
Einge bett
Eigenschaftenschlüssel bilder</w>
Eigenschaft s
Eigenschaft en-
Ebenen masken</w>
ER RO
EPS -Dateien</w>
ECMA Script</w>
E sc-Taste</w>
Dur ing</w>
Drop Shadow
Dreh winkel</w>
Dra ws</w>
Dra fts</w>
Dom änen</w>
Dokument verarbeitung</w>
Dokument seiten</w>
Display State</w>
Differ enz</w>
Differ ent</w>
Determin e</w>
Des cri
Debu ggen</w>
De vice
De m
Daten ban
Datei an
DV D</w>
D el
D O
Cor ner</w>
Copy right-
Con strain</w>
Con figuration</w>
Col dFusion</w>
Code hin
Clipbo ard.
Cine on</w>
Chin esisch</w>
Cap abilities
Ca che</w>
CD- RO
C ach
By te</w>
Bur lington</w>
Bun t
Buch bedienfelds</w>
Browser n</w>
BlendMode .
Bitmap- Bild</w>
Bildlauf leisten</w>
Bild bearbeitungs
Bibliotheksele ment</w>
Beweg ungs
Beweg ungen</w>
Beschnitt zu
Benutzer verzeichnis
Benutzer name</w>
Benach richti
Beli cht
Bel ich
Beispiel en</w>
Bei de</w>
Bedienfel doptionen</w>
Bearbeitungs modus</w>
Be grüß
Be griffe</w>
Back space</w>
Auth or</w>
Ausgewähl tes</w>
Ausgabe hilfe</w>
Aus drücken</w>
Auf füllung</w>
Atta ch</w>
Atta ch
Argu mente</w>
Arbeitsp latz</w>
App lying</w>
App end</w>
Anzeigeobjek ten</w>
Anwendungs server</w>
Anwendungs domäne</w>
Anwendungs dateien</w>
An statt</w>
An hängen</w>
Alarm Clock
Al low
Aktiv iert</w>
Adobe- Website</w>
Administrator en</w>
Addre ss</w>
Adap tive</w>
AVM 2</w>
AV I</w>
A PIs</w>
A L
A C</w>
A AC</w>
8- bit</w>
7 .0</w>
7 -
5 35</w>
5 00</w>
4- bit</w>
3D-Mod ellen</w>
3D- Objekt</w>
35 535</w>
3.0- Komponenten</w>
2 .</w>
19 90</w>
16 -Bit-
1 50</w>
1 4
00 00</w>
.p ng</w>
.N E
. sw
. m
. f
- only</w>
- Tag</w>
- Methoden</w>
- Bedienfelds</w>
- 1</w>
übereins timm
über schriften</w>
über gibt</w>
ü glich</w>
ü bri
übri gen</w>
äuß eren</w>
är te</w>
än en
äl teren</w>
äh e</w>
ä ume</w>
Überlager ungen</w>
Überdruck en-
Überdruck en
Überdrucken vorschau</w>
Ä hn
zwei tes</w>
zusammen ge
zurück ge
zoom ing</w>
ziel le</w>
zentri eren</w>
zentr alen</w>
zei t-
z üglich</w>
z one</w>
y iel
y -</w>
wär t
wor fen</w>
wieder zugeben</w>
wieder hergestellt</w>
wh y</w>
wh ead</w>
wes entlich</w>
wer ts</w>
wel come</w>
wel ch
welch em</w>
weiter er</w>
wei ße</w>
wei sung</w>
w al
vor der
vol le</w>
visi t</w>
vi ce-
verw alt
vertrauenswür dige</w>
verschieden er</w>
verfol g
veranker ten</w>
ver wir
ver satz</w>
ver i
ver gleichen</w>
vali dieren</w>
vali date</w>
v ierte</w>
ur heberrecht
urheberrecht lich</w>
unter teilt</w>
unk ten</w>
ungspro gramm</w>
ung stech
under line</w>
und one</w>
typ e
tusch ieren</w>
tur ning</w>
tu ally</w>
tt et</w>
tre ff
trans ferred</w>
track ed</w>
tra ps</w>
tiv text</w>
tit led</w>
tions -
tier ter</w>
ti ck</w>
three- dimensional</w>
th row</w>
texture Map</w>
ter bü
te- Ereignis</w>
te x</w>
te st
tain ed</w>
ta tions
ta tionen</w>
ta ken</w>
ta il</w>
t äten</w>
t rou
t light</w>
t ex
sä m
synchron ized</w>
syn chr
sum mary</w>
suit able</w>
suc ce
stop pt</w>
sti ft</w>
ster eo</w>
ste ts</w>
ste st</w>
stan ces</w>
stan bieter</w>
sta ys</w>
sta b</w>
st eigen
ss eite</w>
speziel len</w>
spar t</w>
spar ameter</w>
sp rü
sp hase</w>
sor g
sorg fäl
sorgfäl tig</w>
skont roll
sk in
simpli fies</w>
simil arly</w>
sign ierte</w>
sicht lich</w>
sharp ness</w>
sequ ently</w>
sen kre
senkre cht</w>
secu tive</w>
scre en-
schwar zwei
schwar zer</w>
schnitt enen</w>
schlä ge</w>
sch wen
sch eme</w>
sch eidung</w>
sch at
scale Y</w>
satz es</w>
s wap</w>
s ume</w>
s low
slow ly</w>
s l
s il
ru fe</w>
ro whead</w>
ro t</w>
riptor datei</w>
richti gt</w>
ri s</w>
revie wing</w>
respon ses</w>
resol ve</w>
res sourcen</w>
registri eren</w>
regel mäßigen</w>
rechteck ig</w>
recei ving</w>
reas ons</w>
reag iert</w>
re vocation</w>
re u
re plic
re pli
re placing</w>
re ak
rau ms</w>
raster ization</w>
r unden</w>
r aten</w>
quo tes</w>
quell datei</w>
qu ival
qu ify</w>
qu ali
punk t-
präzi se</w>
proz ess
provi ding</w>
promp t</w>
proces sed</w>
proble m
problem los</w>
pro xy-
pro fessional</w>
privile ged</w>
priv aten</w>
press ure</w>
pre fer
pra k
pp s</w>
por ts</w>
po wer</w>
ple -
platz ierten</w>
pl ate</w>
pix el
ph ysi
ph ra
peri or</w>
peri meter</w>
pass ungs
palett es</w>
pac ken</w>
pa st</w>
p lo
p ie</w>
p id</w>
p ause</w>
p ate</w>
overri ding</w>
organ izing</w>
or k</w>
option ale</w>
optim izing</w>
on screen</w>
om -
ole schen</w>
occu p
o ce
nutz ung</w>
noti fy</w>
ni sses</w>
ni on</w>
necess arily</w>
nah me</w>
na tiven</w>
n u
n one</w>
n atür
n arrow</w>
my site
mu dge</w>
mp 3-
mon o</w>
moment an</w>
mo on</w>
mis st</w>
minist ration</w>
minim ieren</w>
min us</w>
min u
mi schen</w>
mi c
me et</w>
mati cally</w>
mathemati schen</w>
mat ter</w>
mani pu
man ner</w>
ma tion</w>
ma j
m t</w>
look ing</w>
lo ses</w>
lie fert</w>
lie fern</w>
li zi
leav es</w>
le vel
le gend</w>
lat ein
la w</w>
la un
krüm men</w>
kreis förmi
korre kte</w>
kontinuier lich</w>
komprim ierung</w>
kombin ierten</w>
kombin ation</w>
ko sten
kno ten</w>
klein ste</w>
klas sen
kl onen</w>
ke wise</w>
ke eps</w>
kar ten</w>
kar te</w>
k un
k um
k inemati
kinemati cs</w>
k ern</w>
k a
k -Ereignis</w>
jus tify</w>
jus tified</w>
job s</w>
jo int</w>
iter ate</w>
iso lieren</w>
ir r
inter section</w>
inter sec
inter nen</w>
inter ne</w>
inter esting</w>
inter ess
inter aktives</w>
integr ate</w>
inte gration</w>
inte gers</w>
int end</w>
int elligen
instruc tional</w>
initialisi ert</w>
index ing</w>
in heri
inheri ts</w>
in correct</w>
in ations</w>
impro ved</w>
implemen tieren</w>
imple ment</w>
image- editing</w>
image setter</w>
im plic
illustr ates</w>
ier enden</w>
ick er-
hö ren</w>
häu fi
hol low</w>
ho sted</w>
hin ten</w>
hil ft</w>
high- quality</w>
hi des</w>
hervor heben</w>
her er</w>
hei ßt</w>
hand buch</w>
ha ir</w>
h aup
gül tige</w>
gu te</w>
group ing</w>
gra de</w>
gni fication</w>
gli che</w>
gleich mäßi
gl atten</w>
get reten</w>
gest euer
geschloss ene</w>
gesam t</w>
gering fü
geri chteten</w>
gera ster
geospati al</w>
gent ü
gen eh
geneh mi
gekrümm te</w>
gek ach
gehen sweise</w>
gegen über</w>
gegen über
geführ te</w>
ge ts</w>
ge sätti
ge spiegelt</w>
ge punk
ge prüft</w>
ge ht</w>
ge fragt</w>
g over
g ert</w>
g ator
führ ungs
ful l
frei zugeben</w>
frame- by-frame</w>
frame set</w>
foo tage</w>
fo c
flexi ble</w>
fix up</w>
find lichen</w>
fil tern</w>
fi del
fidel ity</w>
ffi ci
festgele gte</w>
fes tig
fer tigen</w>
fehlen de</w>
fe ed
feed back</w>
far ther</w>
fan gs</w>
fam ili
fac tory</w>
fac ili
f ran
f on</w>
f el</w>
exten ding</w>
explic it</w>
execu ted</w>
exak te</w>
ev ent-
event- handling</w>
est s</w>
erhe blich</w>
er zwingen</w>
er füllt</w>
er fahren</w>
entsch eiden</w>
ent ypen</w>
ent ext
encounter ed</w>
en umeration</w>
en optionen</w>
en g
en ded</w>
en cies</w>
em ul
ell -
einzu stellen</w>
einbe ziehen</w>
ein igung</w>
eigent lichen</w>
eigent liche</w>
eig nis</w>
ei gh
ei en</w>
effici ent</w>
ec tors</w>
durch sichti
dunkl eren</w>
dunk le</w>
dunk el
du r</w>
du le</w>
dri ven</w>
doppel te</w>
doku mente</w>
do tted</w>
do c</w>
do bjekt</w>
dition ally</w>
disc ard</w>
direc t</w>
diction aries</w>
diagram men</w>
deta il
desk riptordatei</w>
design ated</w>
descrip tive</w>
dent ally</w>
delim i
dec kt</w>
debu g</w>
de selects</w>
de adline</w>
das h</w>
d d</w>
cour se</w>
cont rolled</w>
concep ts</w>
con sum
con forms</w>
comple ted</w>
compil es</w>
comp lex
combin ing</w>
com ing</w>
clo sely</w>
ck y</w>
circum stances</w>
chtig ungen</w>
check box</w>
cer tify</w>
cen tered</w>
car ri
cap turing</w>
cap tured</w>
calcul ates</w>
ca se-
c ss</w>
c entral</w>
c at</w>
c ading</w>
c -
buch s</w>
bu ms</w>
bro ad</w>
bra cket</w>
bo oleschen</w>
bj ekte</w>
bin dung</w>
bili ties</w>
bildschir m
bi c</w>
bezie h
bere chtigungen</w>
ber icht</w>
benach richtigt</w>
benach richtigen</w>
belon gs</w>
begrenz ungen</w>
befeh len</w>
beeinträchti gt</w>
be tro
be schrei
be arbeiteten</w>
be arb
bearb eiten
be absichti
beabsichti gten</w>
bb on</w>
band width</w>
b ün
b ur
b les</w>
b ir
b ble</w>
ausr eich
aus wäh
aus geben</w>
aus führt</w>
aufb auen</w>
auf ruf</w>
auf getreten</w>
auf geführten</w>
auf enster</w>
au to</w>
au dio
ate- Eigenschaft</w>
at -
asteri sk</w>
assi stenten</w>
asp ects</w>
as ked</w>
as cading</w>
are st</w>
ar rows</w>
ar rowhead</w>
anwei sung</w>
anno tation</w>
ang elegt</w>
an sp
ame ter
am ing</w>
allowNet working</w>
alisi ert</w>
align ing</w>
ale tten</w>
alarm Timer</w>
aktiv -
adverti se
adjust ed</w>
acci dentally</w>
abzu spielen</w>
abzu schließen</w>
ab messungen</w>
a .</w>
Zu weisen</w>
Zu ordnung</w>
Zi ffern</w>
Zi ffer
Zi elebene</w>
Zeilenumb ruch</w>
Zeilenab stands
Zeilen nummern</w>
Zeichen werkzeug</w>
Zeichen satz</w>
Zeichen format
Zeichen flächen
Z ieh
Y ork</w>
X- Wert</w>
Wra p</w>
Work f
Wor tes</w>
Wor ten</w>
With in</w>
Will kommen
Wer te
Weich zeichnungs
Weich zeichner</w>
Web- Hilfe</w>
We bo
W in
W a
W BMP</w>
Vorsch aufenster</w>
Vor gehensweise</w>
Voll ständi
Video-Lehr gang</w>
Video frames</w>
Video clips</w>
Vi sibility</w>
Verzerr ungs
Verzeich nisse</w>
Vertrau ens
Verlaufs füllung</w>
Verknüp fen</w>
Verhin dert</w>
Ver zöger
Ver zwei
Ver teil
Ver krümm
Ver flüssi
Variablen namen</w>
Vari ationen</w>
V or</w>
Unterschrift s
Un abhängig</w>
Um geb
Um benennen</w>
U .S
Twe ening</w>
Tri m</w>
Transformation spunkt</w>
To tal</w>
Text variablen</w>
Text feld
Text farbe</w>
Text anker</w>
Text Format
Tex tzeichen</w>
Tex ten</w>
Teil auswahl-Werkzeug</w>
Tastatur eingaben</w>
Tas k
Tabellen -</w>
TIF F-Dateien</w>
T y
T il
T C</w>
Symbol typ</w>
Sub mit</w>
Su ite-
Strich farbe</w>
Stop p</w>
Ster e
Stati sche</w>
Stati c</w>
Start -</w>
Star tup</w>
Standard ansicht</w>
Stamm ordner</w>
Stam m</w>
St rei
Spi tze</w>
Sp ir
Sp iel
Sp ektrum</w>
Sound -Objekt</w>
Soli d</w>
Snipp ets</w>
Smart- Objekt-
Sli deshow</w>
Skrip t-
Ske w</w>
Simul ates</w>
Simple Button</w>
Sha ders</w>
Sh are</w>
Setup- Assistenten</w>
Segmen th
Seek Bar</w>
Seek Bar
Scroll Bar
Schwar z
Schrift grad</w>
Schreib maschine</w>
Schat tierung</w>
Schaltflächen instanz</w>
Schaltflä chen-
Satz es</w>
SMI L</w>
S ingle-
S in
S eri
Rund heit</w>
Res source</w>
Res er
Regular Polygon
Redu zierung</w>
Recon struc
Re vert</w>
Re turns</w>
Ran dom
Radi al</w>
RSS- Fe
R oll
R ed</w>
R ate</w>
Quiz vorlage</w>
Quell -
Qu ellen</w>
Punk t-
ProgressBar -Komponente</w>
Progre ssi
Programm ierung</w>
Produk tions
Produ ction</w>
Produ ct</w>
Pro files</w>
PrintJ ob</w>
Prin ting</w>
Pri orität</w>
Preflight- Überprüfung</w>
Preflight- Profil</w>
PostScript- Dateien</w>
Position ierung</w>
Posen ebene</w>
Polic y</w>
Plu gin</w>
Pla cement</w>
Pinsel vorgabe</w>
Ping- Server</w>
Pfad text</w>
Pfad segment</w>
Per cen
Papierkor b
Pak eten</w>
Pain ting</w>
Pa stes</w>
Pa ints</w>
PR C</w>
PDF-Portfoli o-
PDF- Formulare</w>
PDF- Drucker</w>
PDF Maker-
PC X</w>
PANTON E</w>
P icker-
P ause
Options menü</w>
Op tical</w>
Online- Ressourcen</w>
Objekt stile</w>
O nion</w>
O LE-
Näch stes</w>
Ne ver</w>
Navigations fensters</w>
Navig ator</w>
N ähe</w>
N ie</w>
N E
Muster elemente</w>
Muster element</w>
Multi funktions
Movie Clip
Mitt el</w>
Min dest
Microph one</w>
Metadaten vorlage</w>
MetaWeb log</w>
Men us</w>
Manu fac
Mal -</w>
Macinto sh-
Ma gnification</w>
Ma genta</w>
M app
M V
M P-
M A</w>
Län gen
Lo gin</w>
Lo aded</w>
List -Komponente</w>
Lin k
Lin es</w>
Lich ts</w>
Li ter
Li mit</w>
Les barkeit</w>
Leinwand farbe</w>
Layout anpassung</w>
Layou t-
Laut stärke</w>
Lab- Werte</w>
La ge</w>
Kore ani
Kopierquellen bedienfeld</w>
Kop iert</w>
Kontur bedienfeld</w>
Kontakt informationen</w>
Konstruktor methode</w>
Kon fli
Klon en</w>
Key frame-
Ke eps</w>
Kanä lebedienfeld</w>
K ör
K u
K ran
JPEG- Komprimierung</w>
JPEG -Datei</w>
J us
Inter punk
Inter net
Inter aktiv-
Inter active</w>
Inte gri
Inhalts datei</w>
Indic ate</w>
Index einträge</w>
Incre ase</w>
InDesign -Datei</w>
In kompati
Image map</w>
Illustrator -Datei</w>
Identifi zierung</w>
Identifi es</w>
Hyphen ation</w>
Horiz ont
High er</w>
Hexadezimal wert</w>
Hervor hebung</w>
Helligkeits werte</w>
Helligkeits wert</w>
He ben</w>
Haupt anwend
Hand buchs</w>
Hal ftone</w>
HTT PS</w>
HTT P-
HTML- Einstellungen</w>
H ilf
Gro ße</w>
Grafi kt
Gr undebene</w>
Gr enz
Gl eich
Geräte schriftarten</w>
Gener ates</w>
Gener ally</w>
Gel en
Gel b</w>
Ganz zahlen</w>
Gam ma</w>
GI F-</w>
Füll optionen</w>
Fuß not
Fund stelle</w>
Frei stellungs
Fra ge</w>
Formular felds</w>
Formular daten</w>
Form marken</w>
Foo t
Fol gen</w>
Flä ch
Flat ten</w>
Flash- Dokument</w>
Firefo x</w>
FileReference List
Fiel d</w>
Fen stern</w>
Fehlerereig nisse</w>
Fe atures</w>
Favor it
Farbverlauf s
Farbsepar ationen</w>
Farbfel d-
Farb verwaltung</w>
Farb konvertierung</w>
FLV -</w>
FLA -
F requ
F li
Exam ples</w>
Ex clu
Ereignis- Cue-Points</w>
Ereignis verarbeitungs
Er steller</w>
Entfer nung</w>
Ent werfen</w>
Ent scheidung</w>
En hanced</w>
En den</w>
Einz üge</w>
Eingabe text</w>
Ein trägen</w>
Ein geben</w>
Eigenschaftenschlüssel bild</w>
Eff ekt
Eck punkte</w>
Ebenen optionen</w>
ERRO R</w>
E scap
Duplik at</w>
Druckvor stu
Druck vorgaben</w>
Druck bereich</w>
Doppel pf
Dokumen tebene</w>
Diagram ms</w>
Di vi
Di ff
Di ent</w>
Deklar ieren</w>
Defini tionen</w>
Debu gger
Daten sätzen</w>
Dat enträger</w>
DN G</w>
D unk
Cre ator</w>
Cor por
Cop ies</w>
Contribute- Benutzer</w>
Connec tions</w>
Compati bility</w>
Comm only</w>
Color Picker-
Codeaus schnitt</w>
Code page</w>
Ch ro
Ch ildren</w>
Certific ates</w>
Categor y</w>
Cal lback</w>
Cal cu
Cach e-
CHANG E</w>
CCIT T</w>
C ellRenderer</w>
Byte Array</w>
By te-
Bul lets</w>
Browser fenster</w>
Blen det</w>
Blen d</w>
Ble ed</w>
Bitmap- Objekt</w>
Bitmap- Grafiken</w>
Bitmap bilds</w>
Bin är
Bin dung</w>
Bin ary</w>
Bildschirmleseprogram men</w>
Bildlauf leiste</w>
Bild eigenschaften</w>
Bibliothek spfad</w>
Bezieh ung</w>
Beschneid ungs
Bereich s
Be vel</w>
Be stimmen</w>
Be festig
Bat ch-
Bal ken
Ba se
B um
B reak
B ates</w>
B ased</w>
Auto tag</w>
Auftrags definition</w>
Aufnahme punkt</w>
Aufgaben dateien</w>
Auf rufe</w>
Asso ci
Archiv ierung</w>
Applic ations</w>
Anzeige option</w>
Anwendungs ordner</w>
Animat ed</w>
An teil</w>
An ordnung</w>
An geben</w>
An alog
Alterna tivtext</w>
Alig nment</w>
Aktualisi erung</w>
Adjust ing</w>
Ad ministration</w>
Ad ditionally</w>
Abfra ge</w>
Ab ta
Ab schnitten</w>
A gain</w>
9- Slice-
8 .
5 5</w>
3D- Konvertierung</w>
3D- Bedienfelds</w>
1 4</w>
. exe</w>
. adobe.com</w>
. Mac</w>
- specific</w>
- level</w>
- by-
- Rahmen</w>
- Griffe</w>
- Benutzer</w>
- 100</w>
überge hen</w>
übereinstimmen de</w>
übereinstimm t</w>
über sch
über legen</w>
über lager
über geordnetes</w>
über füllt</w>
über einander</w>
ähn lichen</w>
Überfüllungsvor gaben</w>
Übereinstimm ung</w>
Über gabe</w>
Über füllen</w>
zusammen hän
zulässi gen</w>
zuge griffen</w>
zu ver
zuver lässi
zi p</w>
zedur en</w>
z ill
zill a</w>
z ack
y y
y tes</w>
y te</w>
y Hello</w>
x ref</w>
x .
wra ps</w>
wle dge</w>
win ding</w>
wiederhol ende</w>
wieder gibt</w>
wider gespiegelt</w>
wi chtig
wen ig</w>
wei ten</w>
wei ses</w>
war um</w>
wa hrschein
w r
vorher ge
vor genommenen</w>
virtu ellen</w>
virtu al</w>
view able</w>
video 1.
video1. mp
very Frame</w>
verwal tete</w>
verschieden ste</w>
versch win
verlu st</w>
verkett eten</w>
verfol gung</w>
verbor genen</w>
verblei benden</w>
veranker tes</w>
ver worfen</w>
ver sie
ver m
ver kürz
ver bleibt</w>
ve ti
veti c
vetic a</w>
v .</w>
ut z</w>
unterschied licher</w>
unter teilen</w>
ungs stil</w>
ungs gruppe</w>
ung ro
unc tion</w>
unbe kan
unbe fu
un st
un sichtbar</w>
un necessary</w>
un ding</w>
umgekehr ter</w>
um m
um formen</w>
ul arly</w>
u .j
u.j s</w>
tzeich en
trigger ed</w>
trie b</w>
transl ate</w>
transform .
tran et</w>
tra sh</w>
ton ym
tobj ekte</w>
tobj ekt</w>
tiv e
tit les</w>
tim er</w>
ti tude</w>
ti led</w>
ti gung</w>
text ual</w>
terbü cher</w>
ter min</w>
ten -
tele vision</w>
teco de
te d
tar get
tan gen
tab -
ta tive</w>
ta tiv</w>
t- Anweisung</w>
t säch
tsäch lich</w>
t in
t datei</w>
t Now</w>
säm t
subsequ ently</w>
sub path</w>
su ited</w>
su ben
suben tries</w>
stütz en</w>
stär k
stri ke
str ate</w>
stop ps</w>
stop ped</w>
sto ck</w>
sti c</w>
sten ing</w>
start Drag</w>
stand ing</w>
stan ce</w>
ss or</w>
spezifi sch</w>
specifi cations</w>
specifi cally</w>
speci alized</w>
spe eds</w>
spar en</w>
sp ruch</w>
sp on
sort On</w>
son gs</w>
sna ps</w>
smooth ly</w>
smooth ed</w>
slic e-
sl ope</w>
sk omp
siz ing</w>
sion s
signifi can
significan tly</w>
sign al</w>
side -by-
side-by- side</w>
si erte</w>
si ded</w>
shi f
sharp ens</w>
sh ading</w>
seudo -
set Style</w>
set .htm</w>
seri alisi
sequenti ally</w>
separ iert</w>
semi colon</w>
selek tiv</w>
selec tively</w>
sei tiges</w>
search able</w>
se tup
se t-
se st</w>
se am
se aled</w>
scre tionary</w>
schwen ken</w>
schri tten</w>
schnei de
schließ enden</w>
schie ben</w>
schar fe</w>
sch wer</w>
sch lei
sc rol
sc enari
scenari os</w>
sc atter</w>
sa yHello</w>
s- Taste</w>
s y
s lower</w>
s hr
run de</w>
ru ling</w>
roph one</w>
rop tionen</w>
roo t-
ro ten</w>
ro tation
ro mi
right- clicking</w>
retriev es</w>
resp ective</w>
resolu tions</w>
requ ests</w>
repräsen tiert</w>
repe ti
repe ated</w>
ren amed</w>
relationshi ps</w>
rel ink</w>
reg ularly</w>
referen ziert</w>
red action</w>
recor ded</w>
rea ched</w>
re vok
re order</w>
re l</w>
re drawn</w>
re draw</w>
re al</w>
ra w</w>
ra sters</w>
ra is
rais ed</w>
ra gged</w>
psho ts</w>
prot ect</w>
proof s</w>
proj ection</w>
proj ection
programm ing
programming as
produ k
proce ed</w>
prob ably</w>
prev ented</w>
prev ent
prefer able</w>
pref er</w>
preci sion</w>
prak tisch</w>
pp on</w>
pp i</w>
popul ated</w>
pop ular</w>
po stro
po ssi
po inters</w>
plat forms</w>
pl att
pic ture</w>
ph one
pf ads</w>
pf ad
per mitted</w>
pen e
parenth e
par se</w>
par se
pan es</w>
pa are</w>
p top</w>
p an</w>
overla ps</w>
over writing</w>
over prints</w>
over lay
out ward</w>
out lined</w>
order ed</w>
ord nungen</w>
ord ners</w>
or a
optim alen</w>
op age</w>
onym e</w>
one 2</w>
on Sound
on Mouse
on Load
off line</w>
off er</w>
occur red</w>
oc us
o tones</w>
o .
nü tzliche</w>
nummer ierten</w>
noti ce
no des</w>
new s
nega tiv</w>
ne t-
navig iert</w>
nach zu
nach -
na tional</w>
n opage</w>
n either</w>
n atu
natu ral</w>
n -
my Quiz
myQuiz .htm</w>
my Object</w>
my DisplayObject</w>
multi ples</w>
move To
ml Text</w>
mitt ler
min imal</w>
mic rophone</w>
mi x</w>
mer kung</w>
mer ken</w>
men u.js</w>
men ting</w>
mehr fach</w>
meas uring</w>
mat te</w>
mat ched</w>
maintain ing</w>
ma ß
ma ster
ma il
m x.
loop ing</w>
lock s</w>
lo cally</w>
liz ierte</w>
liz enz
lin ear
limi ts</w>
ligh tness</w>
lie der
li ze</w>
li graphic</w>
level 5</w>
let ter
leng th
len d</w>
leist ungs
leich en</w>
le st</w>
le m</w>
le gung</w>
lau ff
lation stab
lag ern</w>
la tive</w>
l y
l eiten</w>
kür zen</w>
kün f
ku lationstab
ku bi
kreisförmi gen</w>
korrig iert</w>
kont ur</w>
kon stan
kon form</w>
komprim ierten</w>
komplex ere</w>
komplex er</w>
komp le
kl eines</w>
ken ed</w>
ke hrt</w>
kal ku
k tu
k rea
k einer</w>
je t</w>
j unction</w>
it ekt
itekt ur</w>
it ec
itec ture</w>
it alic</w>
ist ing</w>
isol ate</w>
is Ready</w>
invok e</w>
inver ted</w>
introdu ced</w>
interru pt</w>
interpre t</w>
interac ts</w>
inter ior</w>
integri ty</w>
instruc tion</w>
instal ling</w>
instal lierten</w>
input Name</w>
inn ed</w>
ink jet</w>
init Clock</w>
ini ppon</w>
individu elle</w>
indi zierte</w>
inden ts</w>
in- RIP</w>
in puts</w>
in halten</w>
in determin
in d
in compati
in coming</w>
implemen ted</w>
imple ments</w>
image able</w>
ild schir
il- based</w>
il ob
ik B
ikB one2</w>
ier tem</w>
ie bi
identifi ed</w>
identi cally</w>
ic als</w>
i ous</w>
i k</w>
i i</w>
hyp hen</w>
hyp h
hyph ens</w>
hin gegen</w>
hin aus
hilfe bedienfeld</w>
high ly</w>
hi on</w>
herkömm lichen</w>
hen ever</w>
hell eren</w>
haup tsächlich</w>
hard ness</w>
handh eld</w>
hand led</w>
hand -
hal tet</w>
ha ven</w>
h und
h iert</w>
h as
h aber</w>
gül tigen</w>
gängi gen</w>
grü n</w>
grupp ierten</w>
grenz e</w>
gran ts</w>
grafi schen</w>
graf ie</w>
goto And
gleich mäßigen</w>
git ter</w>
geöff netes</w>
geänder te</w>
get SWF</w>
get Filter</w>
gesch lagen</w>
gescan nten</w>
gering erer</w>
gering er</w>
geospati ally</w>
gener al
gen ü
gele gt</w>
gekrümm ten</w>
gefilter ten</w>
gefilter te</w>
geda cht</w>
geb nis</w>
ge sucht</w>
ge schriebene</w>
ge erbt</w>
ge bo
ge ben
ga z
g- and-
g ter</w>
g lass</w>
g .
fäh ige</w>
full Screen
fullScreen Source
front most</w>
fri e
frequ encies</w>
fre m
frame work</w>
frame set.htm</w>
fra ction</w>
fortzu fahren</w>
fortlauf enden</w>
fort gesetzt</w>
formul a</w>
form werkzeug</w>
form ed</w>
for ums</w>
for th</w>
folgen der
folgender maßen</w>
fol ge-
fo to
fix iert</w>
fix ieren</w>
fil e-
field Of
fieldOf View</w>
fer ring</w>
feh lern</w>
facili t
fac t</w>
fa stest</w>
fa stening</w>
f tete</w>
f ree
f p</w>
f okus
extrac ting</w>
extrac ted</w>
experi mentieren</w>
exp lizi
exp ects</w>
exclu ded</w>
example. programmingas
establi shed</w>
erziel t</w>
erforder liche</w>
er tes</w>
er folgen</w>
er fasst</w>
er as
environ ments</w>
entifi zierung</w>
enti rely</w>
enter FullScreen
enterFullScreen DisplayState</w>
encryp ted</w>
enari en</w>
enab ling</w>
en- Bedienfelds</w>
en ten</w>
en ta
en han
en d-
ema il-based</w>
em icals</w>
em bo
em beds</w>
ellip ses</w>
ellip se</w>
el ess</w>
eit räge</w>
einheit liche</w>
eingebette tes</w>
einfa chsten</w>
ein stellungs
ein schränkungen</w>
ein heiten</w>
ein gerichtet</w>
ein fügt</w>
eigh b
effizi ent</w>
effek t-
ed ged</w>
e- time</w>
e- Eigenschaft</w>
e ping</w>
duplic ated</w>
dunkl ere</w>
dunk len</w>
dunk eln</w>
dopp elt</w>
doku menten</w>
doku men
do main
do E
doE veryFrame</w>
distribu ting</w>
distor tions</w>
dist in
dispat ch
dispatch Event</w>
dis ables</w>
direc tions</w>
dire kte</w>
diagon ale</w>
develop ing</w>
deut lich</w>
der i
debu ggen</w>
de vice-
de part
das hes</w>
dar ken</w>
dar k
dan ach</w>
d w
d ly</w>
d .
cu ts</w>
cu bic</w>
cri tical</w>
cre ative</w>
conver sions</w>
control ler</w>
contra ct</w>
contin ues</w>
conn ection
conflic ts</w>
con junction</w>
con fig
compli ance</w>
complex ity</w>
compil e-time</w>
compil ation</w>
comp romi
comp ri
comp ari
comp are</w>
comp an
commun ity</w>
com .
com. example.programmingas
colum n
coloriz ation</w>
clu tter</w>
clo sest</w>
clear s</w>
clear ing</w>
ck wave</w>
cht es</w>
ch u
ch ter</w>
ch itektur</w>
ch at</w>
ch al
caus ed</w>
care fully</w>
capit al
cap ability</w>
calcu lation</w>
cach e
c tive</w>
c m</w>
c lock</w>
c f
c ent</w>
c el
c b
buffering Bar
bu chst
bu bb
brow sing</w>
brigh ter</w>
break point</w>
bor ate</w>
book ends</w>
bo unds</w>
blur ring</w>
block ing</w>
blau e</w>
biblio thek
bewa hrt</w>
bevorzu gten</w>
bevorzu gte</w>
besteh enden</w>
besteh end</w>
beson deren</w>
beschleun igung</w>
ber fläche</w>
bein haltet</w>
behand lung</w>
beha ves</w>
begrenz t</w>
beding ung</w>
bed ingt</w>
be zeichnung</w>
be qu
be kannt</w>
be have</w>
be griff</w>
be antwor
basi s</w>
bar riere
ban ner</w>
back drop</w>
b us
b atch-
autom ated</w>
auszu füllen</w>
auswäh l
ausreich end</w>
aus ch</w>
aufzu listen</w>
auflö sungs
auflö sende</w>
auf listen</w>
auf geb
atur -Pinsel</w>
attribu t</w>
attemp ting</w>
ations modus</w>
ate gi
at ing-
as h</w>
archi ving</w>
arch itecture</w>
arb ildschir
arb eit</w>
arb age</w>
ar s</w>
ar is</w>
app ly
anzu hängen</w>
anno tations</w>
angeglich enen</w>
ange wand
ang abe</w>
an wendet</w>
an u
an tifi
an passungen</w>
an k</w>
am s</w>
allow Full
aller dings</w>
algorith mus</w>
algorith ms</w>
aktiv ierte</w>
ak t
ah ead</w>
age -
advertise ment</w>
add Callback</w>
ad ap
acrob at</w>
accompli sh</w>
a ware</w>
a ir
a Button</w>
Zähl werkzeug</w>
Zwischen speicherung</w>
Zusä tzliche</w>
Zugriff skontroll
Zu schneide
Zoom stufe</w>
Ziel -
Zertifik ats</w>
Zentri ert</w>
Zeit leisten</w>
Zeilenabstands wert</w>
ZI P</w>
Z- Achse</w>
XFL -Format</w>
X T
Workf low-
Wor ds</w>
Wir eless</w>
Whe ther</w>
Weiter suchen</w>
Weich zeichnung</w>
Wei ß
WebDA V</w>
Warn symbol</w>
War nungen</w>
W3 C</w>
W o</w>
W henever</w>
W ellen
W ac
Vollständi ge</w>
Vie wer</w>
Videoimportassi stenten</w>
Video -Objekt</w>
Veröffentlich ungspro
Verzwei gung</w>
Verwalt ungseinstellungen</w>
Version s
Verschieben -Werkzeug</w>
Verlu st
Verlaufs leiste</w>
Vergrößerungs stufe</w>
Vergrößerungs faktor</w>
Verfü g
Verbindungs assistenten</w>
Ver wend
Ver weise</w>
Ver teilen</w>
Ver läufen</w>
Ver ify</w>
Ver b
Vektor objekten</w>
Variab le
Vali dierung</w>
V olu
V o
V ir
V P
Urspr ungs
Up load
Unter streich
Unter schnei
Unter schie
Unter einträge</w>
Un d</w>
Um kehren</w>
UT F
URL Variables</w>
URL Variable
URI Error</w>
UI Loader</w>
U.S .</w>
U S-
U L
U .</w>
Tween- Bereiche</w>
Transformier enbedienfeld</w>
Tran sitions</w>
Trackback- URL</w>
Tra cing</w>
TouchUp- Leserichtung</w>
Top ics</w>
Tonwert korrekturen</w>
Ton spur</w>
Textobj ekts</w>
Textab schnitten</w>
Text felds</w>
Text dateien</w>
Text bereich</w>
Text ausrichtung</w>
Tex tzeichen
Test ing</w>
Teil zeichenfolge</w>
Teil flächen</w>
Tech nologien</w>
Tastaturbefeh len</w>
Tabellenz elle</w>
Tabellen eigenschaften</w>
TW AI
T i</w>
T A</w>
Sä ul
Sz en
Synchron isi
Syn c</w>
Subtra hiert</w>
Su ch</w>
Style sheet</w>
String .
Stri ke
Stri chen</w>
Steuer ungen</w>
Stapel sequenzen</w>
Stap els</w>
St ufen</w>
Square B
SquareB g
Sprite Ar
SpriteAr ran
Spre ad</w>
Speicheror te</w>
Speci fying</w>
Spalten breite</w>
Sp ur</w>
SoundFac ade
Sol ange</w>
Socket- Richtliniendatei</w>
Sna pshot</w>
Smart-Objekt- Ebene</w>
Sli der
Skalier en-Werkzeug</w>
Signatur felder</w>
Sicherheitsricht linien</w>
Sicherheitsricht linie</w>
Sicherheits modell</w>
Sicherh eit
She et</w>
She ar</w>
Shar pen</w>
Shar p
Shar ing</w>
Shader Filter</w>
Shader Fill</w>
Shader -Objekt</w>
Server n</w>
Ser vice</w>
Separations vorschau</w>
Semikol on</w>
Seiten nummerierung</w>
Seiten miniatur</w>
Seiten bedienfelds</w>
Security. loadPolicyFile</w>
Securit y
Sec ure</w>
Schwär z
Schriftar ten
Schnitt stellen</w>
Schlüssel bilder</w>
Schat tierungen</w>
Sch rän
Scal e
Sc ene</w>
Sc atter</w>
Sample Code</w>
Samm lungen</w>
SWC -Dateien</w>
SW C-
SA A</w>
S ong</w>
S ends</w>
S endet</w>
S E
S D
S CA
SCA LE</w>
S C-
Rück seite</w>
Rück gabe
Rul es</w>
Rol es</w>
Richt ungen</w>
Reser ved</w>
Res ult</w>
Res am
Ren ders</w>
Remote- Server</w>
Regi stration</w>
Reg Ex
Red action</w>
Recor d</w>
Recogni ze</w>
Rechteck werkzeug</w>
Re size</w>
Re posi
Re port</w>
Re ferences</w>
Re ader
Raster ung</w>
Raster ize</w>
Raster bilder</w>
Radi ance</w>
Ra stert</w>
Ra sters</w>
R ufen</w>
R b</w>
R ad</w>
Punkt größe</w>
Proxy- Klasse</w>
Programmier sprache</w>
Produ ces</w>
Popup menüs</w>
Popup menü
Popup fenster</w>
Polyg on-
Player- Version</w>
Plan e</w>
Pl atten</w>
Pixel- Seitenver
Pixel werte</w>
Pinsel werkzeug</w>
Pinsel striche</w>
Pinsel strich</w>
Pfeil schaltflächen</w>
Percen tage</w>
PayP al-
Par ti
Papierkorb symbol</w>
Papier format</w>
Page Maker-
Page 1.htm</w>
Pa steboard</w>
PS B</w>
PM I-
PIC T-
PH P</w>
PDF- Version</w>
P rec
P ort
P op-up</w>
P layers</w>
P ing</w>
P er</w>
P RE
P P</w>
P -</w>
Ordner namen</w>
Optim ized</w>
Office- Anwendungen</w>
Off line</w>
Objektt yp</w>
Objekt bibliothek</w>
OR MA
OC US</w>
O OP</w>
Näch ste</w>
Net scape</w>
Nega tive</w>
Navig ator
Name -
N on-
Musterseiten objekte</w>
Muster druck
Moviecli p
MovieCli ps</w>
MouseEvent.CLIC K</w>
Mojikum i</w>
Modifi kator</w>
Mobil tele
Mo zilla</w>
Mo sa
Mo dule</w>
Mittel tönen</w>
Mit glie
Mischdruckfarben- Gruppe</w>
Misch ung</w>
Min u
Mi schen</w>
Messskal a</w>
Messproto koll</w>
Mess aging</w>
Mes sen</w>
Medi a
Maus rad</w>
Math .
Manufac turing</w>
Makro text</w>
Main tains</w>
Mac -
Ma ß</w>
Ma gne
Ma cht</w>
Ma chen</w>
MPE G</w>
MP 4
M in</w>
M SAA</w>
Lumin osity</w>
Loader Cont
Loader .
Lo ss
Lo op
Lo go</w>
Lo gi
Listener- Funktion</w>
Linien stärke</w>
Linien segment</w>
Licht winkel</w>
Li z
Lern programme</w>
Leg acy</w>
Leerr äume</w>
Laufzeit fehler</w>
Lab s</w>
La st</w>
L ück
L ie
L D-
LD- A
L -</w>
Kursi v</w>
Kur z
Konturen führung</w>
Kontext menüs</w>
Kont ext</w>
Konstruktor funktion</w>
Komprim ieren</w>
Komplex ität</w>
Komp osition</w>
Kom mas</w>
Kol li
Kenn t
Kanten pixel</w>
Kanal mix
Kal kulationstab
K unst
K unden</w>
JavaScript- Datei</w>
JPEG s</w>
J ukebox</w>
J anu
J 2
Isol ationsmodus</w>
Interpunk tion</w>
Interaktiv- mal
Inter national</w>
Inter actions</w>
Integri tät</w>
Instal lieren</w>
Inkompati bili
Index seiten</w>
Index ed</w>
Index bedienfelds</w>
Index -Eigenschaft</w>
In verse</w>
In s</w>
In nen
In line-
Imp le
Identit äten</w>
Identit ät</w>
Identifi ziert</w>
IS O</w>
IS O
IO ErrorEvent.
IN D
I O</w>
I LD-A
I Graphics
Hyperlinks bedienfelds</w>
Hyperlink -
Hoch laden</w>
Ho w</w>
Ho he</w>
Ho ch</w>
Hintergrund farben</w>
Hel vetica</w>
He ad
Hauptanwend ungsdatei</w>
Hardware beschleunigung</w>
HTM L-</w>
H ilfe
H E-
HE- AAC</w>
H D</w>
Griff linie</w>
Grafik symbole</w>
Grafik datei</w>
Gra y</w>
Glyphen satz</w>
Gewi chtung</w>
Gerä ts</w>
Geo daten</w>
Genau igkeit</w>
Gem ein
Ge t</w>
Ge hr
Gam ma
Galerie seite</w>
G lieder
Fü llt</w>
Fund stellen</w>
Frame set</w>
Formul arbildschir
Forme bene</w>
Format ting</w>
Flatten er</w>
Fireworks- PNG-Datei</w>
FilterWorkben ch
Filter einstellungen</w>
Filter effekte</w>
FileReferenceList .
FileReferenceList. browse</w>
File Download
Fil ls</w>
Fig ures</w>
Fern seh
Fel ds</w>
Feed Dem
FeedDem on</w>
Fatal Error</w>
Farbfeld- Bedienfeld</w>
Farbauf trag</w>
Farb manage
Farb leiste</w>
Farb kanal</w>
Farb informationen</w>
Farb hilfebedienfeld</w>
FX G</w>
FLV -Format</w>
FF 00</w>
FF 0000</w>
F- Format</w>
F ocus
F lare</w>
F ea
F am
F ak
F OCUS</w>
F 9</w>
F 3</w>
Extra hieren</w>
Exam ine</w>
Ex per
Ex it</w>
Ex isting</w>
Ex change
EventDispat cher
Event. COMPLETE</w>
Er ste</w>
Entsprech ungen</w>
Engli sch</w>
End format
Einzel bild
Eingebett ete</w>
Eingabetext feld</w>
Eingabe auf
Ein trags</w>
Ein schränkung</w>
Ein passen</w>
Ein bett
Ei ther</w>
Ei gentü
Edi toren</w>
Eck en-
Ebenenkomp ositionen</w>
Ebenenkomp osition</w>
Ebenen effekte</w>
Eben so</w>
Eben en-Bedienfeld</w>
E- mail</w>
E val
E u
E Z
E N</w>
Durch schnitt</w>
Druckfarb en-
Drucker auflösung</w>
Druckbo gen
Druck ers</w>
Dropdown liste</w>
Dreh ungs
Down sampling</w>
Down -
Doppelpf eil</w>
Disc ard</w>
Dis ab
Dimen sionen</w>
Dimen sion</w>
Diagram me</w>
Di thering</w>
Di rect
Di alog</w>
Desktop- Drucker</w>
Deckkraft maske</w>
Debugger -
Debu g-
Datent yps</w>
Datenban k</w>
Daten quelldatei</w>
Dateinamen erweiterung</w>
Data -
Da inippon</w>
DT D-
D ynam
D inge</w>
D g</w>
Cur sor
Ctrl- drag</w>
Corpor ation</w>
Contribute- Seite</w>
Continu ous</w>
Connec tNow</w>
Compu tern</w>
Compo site</w>
Comp re
Comp ound</w>
Communic ations</w>
Combin es</w>
ColorPicker- Komponente</w>
Colla borate</w>
Codehin weise</w>
Clock wise</w>
Clipboard. general
Cli ents</w>
Clas spath</w>
Cho ice</w>
Ch emicals</w>
Certific ate</w>
Capabilities .
Cap abilities</w>
CS 3-
CMYK- Farben</w>
C PU</w>
C ID</w>
C D
Br eiten
Book mark</w>
Bo unding</w>
Bo gen</w>
Blu e</w>
Blogein trags</w>
Blog server-
Blen de
Blat t</w>
BitmapData .
Bitmap- Masken</w>
Bitmap- Grafik</w>
Bit rate</w>
Binär daten</w>
Bibliotheksele menten</w>
Bibliotheks datei</w>
Bi cubic</w>
Bezieh ungen</w>
Beweg ungsp
Beschrift ungs
Beschleunig ungs
Berech net</w>
Benutzerinterak tion</w>
Belicht ungs
Belich ter</w>
Bel iebi
Begrenzungs box</w>
Beding ungs
Be zier</w>
Be stätigen</w>
Be st</w>
Be hin
Be gradigen</w>
Be folgen</w>
B lätter</w>
B lock</w>
B it-
B eiträge</w>
B ILD-A
Automati sche</w>
Autom .</w>
Auto- Complete</w>
Auto -B
Auto-B lend</w>
Author ing
Ausricht ungsoptionen</w>
Ausgabegerä ts</w>
Auf lö
Audio -
Au di
Attach ments</w>
Assi st</w>
Art boards</w>
Are as</w>
Arbeits fläche</w>
Arbeit spfad</w>
App ro
Anwendungs leiste</w>
Anwendungs fensters</w>
Anwendungs deskriptordatei</w>
Antwor tdatei</w>
Anschnitt -</w>
Animations bedienfelds</w>
An spruch</w>
An leit
An hang</w>
An gabe</w>
Altern ate</w>
Alph at
Algorith mus</w>
Al bum</w>
Al ben</w>
Adre ss
Adobe- Produkten</w>
Adobe- ID</w>
ActionScript- Klasse</w>
Acces sible</w>
Absatz linie</w>
Ab stands
Ab ge
AVM 1</w>
AB C</w>
A x
A siatische</w>
9. 0.
9 99</w>
9 4</w>
8 9</w>
8 00</w>
50 8</w>
5 1</w>
4. 16
4.16 6</w>
4 -Bit-
3G PP</w>
3D- Werkzeugleiste</w>
3D- Objekten</w>
3.0- Code</w>
3 6
3 4.166</w>
25 6-
216- color</w>
200 4</w>
200 0-
20 4
2.0- Referenzhandbuch</w>
2. 0.
2.0. 34.166</w>
19 70</w>
19 2.0.34.166</w>
1. x</w>
1. 7</w>
00 CC
00 1</w>
.inc p</w>
.ic ml</w>
.N ORMA
- value</w>
- Paket</w>
- Modus</w>
- Attribut</w>
- Anwendung</w>
- -</w>
überwa chen</w>
übergreif ende</w>
übergreif end</w>
über spr
über setzt</w>
über flüssi
über druck
überdruck te</w>
ü bli
öffent lich</w>
öff n
ö ber
äh ler</w>
ä tigung</w>
Übertra gungs
Überprüfungs modus</w>
Übergangsp unkte</w>
Über setz
Über blenden</w>
Ä quival
zwischen gespeicherten</w>
zwischen gespeichert</w>
zwei mal</w>
zusammenge fasst</w>
zusammen zuführen</w>
zusammen zu
zusammen gesetzt</w>
zusammen geführte</w>
zurück kehren</w>
zur zeit</w>
zulässi ge</w>
zufäl ligen</w>
zu künf
zu gelassen</w>
zu frie
zufrie den</w>
zu einander</w>
zertifi k
zent satz</w>
zeilen -
zeich nisse</w>
zei genschaften</w>
zahlr eichen</w>
z ien
z esses</w>
yiel ds</w>
x- Achse</w>
wärt skomp
wär en</w>
www. mysite
wor d
wirk sam</w>
wiederhol enden</w>
wieder verwendet</w>
wieder um</w>
wi re
wire frame</w>
wi er
whi ch
which ever</w>
werkzeu g-
weiß er</w>
weich e</w>
wei sungen</w>
wei gh
weigh ted</w>
web -based</w>
wat ched</w>
wat ch</w>
war ds</w>
wahrschein lich</w>
w e</w>
vorherge henden</w>
vorhand ener</w>
vorge gebene</w>
vor wärts</w>
vor liegen</w>
vor lagen
vor gängen</w>
vor gelesen</w>
vor behalten</w>
vor ausge
vol len</w>
vi ell
viell eicht</w>
verw andelt</w>
verursa cht</w>
vertrau en</w>
vert ently</w>
versehen en</w>
verschie bung</w>
verlust freie</w>
verbesser te</w>
verb undenen</w>
ver- Status</w>
ver zöger
ver teil
ver sionen</w>
ver läuft</w>
ver ing</w>
ver hältnis</w>
ver glichen</w>
ver erbung</w>
var ni
van i
vani shing</w>
validat ing</w>
v o
v ektor
v as
uti l
us ands</w>
ur th</w>
ur s</w>
up on</w>
up loads</w>
unterstütz ung</w>
unterstütz te</w>
unter strich
unsepar ierte</w>
unk no
unkno wn</w>
uni gt</w>
ungs- API</w>
ungs bereich</w>
unger ade</w>
ung styp</w>
under score</w>
unbefu gte</w>
un ts</w>
un signed</w>
un sichtbaren</w>
un link</w>
un formatted</w>
un filled</w>
un durchsichti
un benannte</w>
un bedingt</w>
un able</w>
un abhängige</w>
umzu schalten</w>
umgeb rochen</w>
um fließen</w>
um benannt</w>
ul l-
u g</w>
u de</w>
u b
tz er</w>
tz en
tz ahl</w>
type face</w>
tu ral</w>
tri mm
transl ated</w>
tran spar
trade marks</w>
tra tion</w>
tra pped</w>
tra il</w>
ton nen
tionsk omp
tionskomp onen
tion spro
tion ed</w>
time- consum
time-consum ing</w>
tim ing</w>
ti lt</w>
ti l
ti fying</w>
ti ces</w>
tho usands</w>
tf arb
tempor ären</w>
tecode -Datei</w>
te- Zeichen</w>
te sts</w>
te sch
tesch lange</w>
tangen t</w>
tal k</w>
t- Pa
t ätigen</w>
t ter
t ell</w>
t ect</w>
t all</w>
synchron ization</w>
syn the
syn onym
swit ching</w>
swit ches</w>
swit ch-
switch- Anweisung</w>
sum es</w>
sub strings</w>
sub script</w>
sub layers</w>
su perior</w>
su it</w>
su ffici
stär ken</w>
stär ke
strukturi erten</w>
struk tions
struc tural</w>
stru ktur
stret ched</w>
strah l
stop pen</w>
sti ls</w>
sti ll
sti ken</w>
sti eg</w>
sti c
stic ated</w>
sten cy</w>
steh end</w>
stati stics</w>
stand alone</w>
st mögliche</w>
st ently</w>
st ei
st ap
st andar
standar di
ss en
spra chen</w>
speicher ort</w>
specifi cation</w>
spac e-
sp roble
smooth ness</w>
sm all
skon sole</w>
ski p</w>
ske tte</w>
skal ierung</w>
sin haber</w>
simul ating</w>
simu liert</w>
simp lest</w>
sign s</w>
sign ierten</w>
siati schen</w>
si tzung</w>
si tuation</w>
shor ten</w>
shin ing</w>
shi fts</w>
shap ing</w>
sha de</w>
sh ear
seri alized</w>
sequenz iel
sem ble</w>
sele menten</w>
sei tig</w>
secon dary</w>
se where</w>
se tup</w>
se em</w>
se ek</w>
screen- based</w>
schwe bende</w>
schrift art</w>
schle unigt</w>
schie ht</w>
scha ffen</w>
sch wa
sch lagen</w>
scan ners</w>
scale Mode</w>
sc ru
sc at
satis fied</w>
satelli te</w>
s wert</w>
s tions</w>
s ou
s op
sop hi
sophi sticated</w>
s omit</w>
s mar
s eit
s cor
s al</w>
s -Datei</w>
rück wärts</w>
round ness</w>
root- relative</w>
rol lo
rollo vers</w>
robu st</w>
ro ving</w>
ro om</w>
ro man</w>
ri bbon</w>
revie wed</w>
revi sed</w>
resolu tion-
reser viert</w>
reser ved</w>
reprodu ction</w>
repe ats</w>
repe ate
repeate dly</w>
ren dern</w>
reli able</w>
ref lows</w>
red und
recommen ds</w>
recogni zes</w>
recogni tion</w>
reco vered</w>
recipi ent</w>
recei ved</w>
read -only</w>
re wall</w>
re used</w>
re shaping</w>
re ply</w>
re gel</w>
re al-
real- time</w>
random ly</w>
ran g</w>
ragan a</w>
r eicht</w>
r den</w>
r ary</w>
quadrati sche</w>
qu eu
punk t
public ation</w>
präsen tation</w>
proxy- Namespace</w>
proto koll</w>
prot ection</w>
progressi v
programm gesteuert</w>
profession ellen</w>
produ ced</w>
proce eding</w>
primä ren</w>
primä re</w>
prepar ing</w>
prece de</w>
pre pare</w>
pre dic
poten tial</w>
postro p
popul ate</w>
plan en</w>
pla in</w>
pl ing</w>
pl atten</w>
pix eln</w>
phra se</w>
photo graph</w>
ph one</w>
persön liche</w>
perspektivi sche</w>
per f
pene tration</w>
pel t</w>
pass word-
partici pate</w>
parti cle</w>
pan merkung</w>
pak ete</w>
pak et</w>
pack aging</w>
pack age-
pac ke
packe t</w>
pa per
p ted</w>
p ling-
p ick</w>
out- of-
organiz ations</w>
ordin aten</w>
option alen</w>
op tions
on nen</w>
on i
oni on</w>
olo gi
oku p</w>
off sets</w>
oce ans</w>
objec t-</w>
o sal</w>
o ffi
o de</w>
numeri cally</w>
notice able</w>
non- native</w>
non- global</w>
non- destruc
non linear</w>
no tified</w>
no tification</w>
nis -
ni ght</w>
neutr alen</w>
neu este</w>
net Status
navig ating</w>
nah men</w>
n ull
n ter</w>
n ont
n ing-
n d</w>
n ar
n -Werkzeug</w>
my XML</w>
my Button</w>
multipli ziert</w>
multipli er</w>
multi ply</w>
multi ple-
mon th
modu l</w>
modifi cations</w>
mo unt</w>
mo sa
mix ing</w>
mitt elt</w>
mis spelled</w>
mis sion</w>
minu tes</w>
minim ize</w>
minim alen</w>
mil zt</w>
mi ts</w>
mi ter</w>
mi st
meta character</w>
mer kmale</w>
mer ges</w>
men gen</w>
mei st</w>
mati sch</w>
mark ierte</w>
manu ellen</w>
manu elle</w>
manipul ating</w>
mana ging</w>
mail to</w>
ma gaz
m ust
m irr
m alt</w>
län ge</w>
loss y</w>
loop s</w>
loc ator</w>
load Movie</w>
lo gin</w>
linear en</w>
line al</w>
lighten ed</w>
ligh ten</w>
li ter
li ff
lei hen</w>
leg al</w>
le ss
le gi
le erer</w>
le ader</w>
le ad</w>
laun ch-
launch- and-
launch-and- edit</w>
last Name</w>
lang sam</w>
l atz
l ate</w>
kürz lich</w>
kur z</w>
kun digen</w>
kum u
ktu roptionen</w>
krea tive</w>
korrektur -
kor e
kore ani
konver tierte</w>
kont rast</w>
kon to</w>
kon nten</w>
komple tte</w>
kom mer
ko ordinaten</w>
kno ck</w>
ke tten</w>
ke pt</w>
ke eping</w>
k -
jum ps</w>
j en
j em
jem and</w>
it rary</w>
issu ed</w>
isol ation</w>
isol ated</w>
isi erte</w>
invi te</w>
inver tiert</w>
intersec ting</w>
interpre tieren</w>
interpo liert</w>
intern ally</w>
inter val</w>
inter sect</w>
inter n</w>
inter faces</w>
integri ert</w>
integr ated</w>
int brush</w>
initi ieren</w>
initi al
ing b
inform iert</w>
indic ated</w>
indi rec
indi re
indetermin ate</w>
in set</w>
in corpor
in ad
inad vertently</w>
impro ve
im mer
illu sion</w>
ili ties</w>
ihr es</w>
identi ty</w>
identi ties</w>
identi fying</w>
i scher</w>
i f-
i d
i chten</w>
hö herer</w>
hyphen ated</w>
ht mlText</w>
horizont aler</w>
hol es</w>
hochauflö senden</w>
hoch laden</w>
ho sts</w>
ho hen</w>
ho h
hinzu fügt</w>
hinaus ragen</w>
hin weg</w>
high- end</w>
hierarch ischen</w>
herkömm liche</w>
her aus
hen folge-
henfolge- Fenster</w>
heberrecht sinhaber</w>
har ten</w>
har d-
hard- edged</w>
hand eln</w>
hal t</w>
hal f-
h ül
h ä
h ues</w>
h on
h ome
h nen</w>
h it</w>
h elle</w>
h eits
größ ten</w>
größ te</w>
grenz en</w>
graphi cal</w>
graphi c
grap h
gra in</w>
gra bber</w>
gr eifen</w>
gl ern</w>
gl atter</w>
gl atte</w>
git ude</w>
gi ving</w>
geöff nete</w>
gewähl te</w>
getween te</w>
gesteuer te</w>
gesetz te</w>
geschütz ten</w>
geringfü gig</w>
gering ere</w>
genutz te</w>
gener ating</w>
genehmi gt</w>
genau igkeiten</w>
genau igkeit</w>
gen ug</w>
gen der</w>
gelö schten</w>
gegen seitig</w>
gef undenen</w>
gedruck te</w>
gedreh ten</w>
gebo genen</w>
ge zack
ge te
ge sen
ge schieht</w>
ge de
gan zen</w>
gam ma</w>
gabe termin</w>
gab el
ga p</w>
g arbage</w>
g ar
g ame</w>
fän gt</w>
fäl lt</w>
ft ung</w>
ft es</w>
forma tionen</w>
fo urth</w>
flo ating-
floating- point</w>
fließ en-
fix ups</w>
fix ing</w>
fix ed-
fir st-
fir m</w>
fine-tun e</w>
fin ger
fin ding</w>
fi xes</w>
fi tting</w>
fi she
fi rewall</w>
ff ekten</w>
fel d-
fein ern</w>
fehlen swert</w>
feh ler
fe tt</w>
fas sungs
farb en
facilit ate</w>
fac tors</w>
fa iled</w>
extrah iert</w>
exclu de</w>
exce ed</w>
example .com</w>
ex tern
ex plan
ex -
eu t
erweiter ungen</w>
err or-
erlau bt</w>
eri meter</w>
eras er</w>
er- Klasse</w>
er text
er stellung</w>
er le
er gebnis</w>
er füllen</w>
ent- time</w>
ent gegen</w>
ent es</w>
ent ence</w>
eng ines</w>
end points</w>
end ar</w>
en- Werkzeugleiste</w>
en werkzeug</w>
en lar
en des</w>
employe e</w>
empfoh len
emp fehlenswert</w>
embed -Tags</w>
ellymo ser
elimin ates</w>
elimin ate</w>
el sewhere</w>
einzu fü
eingeschrän kt</w>
einge stu
einge gebene</w>
einge blendet</w>
einfa chste</w>
ein stell
ein passen</w>
ein nimmt</w>
ein mali
ein iger</w>
ein ger
ein gabe</w>
ein fall</w>
eig nen</w>
ei henfolge</w>
eh er</w>
effizi enter</w>
effekt- Einstellungen</w>
eff ekten</w>
ebenen basierte</w>
easi est</w>
e ment</w>
e ases</w>
dw t</w>
durch such
dupli zierte</w>
du otone</w>
druck enden</w>
dreidimension alen</w>
dreh ung</w>
double- clicking</w>
dop tion</w>
doku ment
do ck</w>
disp atch</w>
disab ilities</w>
dis c</w>
differ enti
dic ated</w>
diagram m</w>
di tions</w>
di tions
di ther</w>
di ert</w>
develop er</w>
deta ch</w>
det ected</w>
design ing</w>
design ate</w>
deri ved</w>
der ungen</w>
der -By
deploy ment</w>
deploy ed</w>
den e</w>
den den</w>
demonstr ate</w>
deli ver</w>
deck enden</w>
dec ryp
dec ode</w>
de ten</w>
de sc
de dicated</w>
datein amen</w>
datei format</w>
dat a-
dar unter
dar kened</w>
da zwischen</w>
da zugehörigen</w>
da k</w>
d- out</w>
d ün
custom izing</w>
custom er</w>
curr ent-time</w>
cu tting</w>
cu mu
cu be</w>
cro ss
cre ator</w>
coun ts</w>
cont ribute</w>
cont ext
consi stently</w>
consi stency</w>
connection Name</w>
confir m
conf using</w>
con stra
con secutive</w>
con form</w>
con den
compo siting</w>
comp ly</w>
colla p
coll ections</w>
co vered</w>
co ver</w>
co s</w>
co ded</w>
co ar
clo sures</w>
cli ents</w>
ck ing</w>
chu -
chti gung</w>
cht eile</w>
check PolicyFile</w>
chap ters</w>
ch ern</w>
cen ters</w>
caus ing</w>
case- sensitive</w>
cal ligraphic</w>
cal i
cache AsBitmap</w>
c lon
c l
c ellRenderer</w>
c ate</w>
c at
c .</w>
bün dig</w>
bus iness</w>
bum p</w>
bul leted</w>
brie f</w>
bre vi
bran ches</w>
bol d</w>
bo tt
blur s</w>
block -level</w>
blau es</w>
blau en</w>
bin äre</w>
bildschirm basierten</w>
bil det</w>
bewe gung</w>
betro ffen</w>
betra chten</w>
beschrift ungen</w>
berü hrt</w>
bequ eme</w>
beliebi g</w>
belieb iger</w>
bel assen</w>
begrenz te</w>
beg onnen</w>
bearbeiten den</w>
be zeich
be trieb</w>
be side</w>
be schreibung</w>
be schleunigt</w>
[...]
